<PAD>	0
<UNK>	0
<BOS>	0
<EOS>	0
▁t	-0
he	-1
▁a	-2
in	-3
er	-4
▁s	-5
▁the	-6
on	-7
re	-8
▁w	-9
ed	-10
en	-11
▁c	-12
▁o	-13
at	-14
▁b	-15
an	-16
▁f	-17
or	-18
is	-19
ing	-20
it	-21
▁h	-22
es	-23
▁to	-24
ar	-25
▁p	-26
▁in	-27
nd	-28
ou	-29
as	-30
al	-31
▁m	-32
▁of	-33
▁d	-34
ic	-35
▁and	-36
le	-37
om	-38
il	-39
▁th	-40
id	-41
ion	-42
ent	-43
▁be	-44
▁l	-45
▁T	-46
▁n	-47
▁he	-48
▁re	-49
st	-50
ve	-51
ay	-52
ot	-53
▁S	-54
▁g	-55
ol	-56
ut	-57
▁on	-58
ad	-59
▁A	-60
am	-61
▁M	-62
ac	-63
▁e	-64
ow	-65
▁C	-66
ly	-67
ur	-68
▁for	-69
im	-70
ig	-71
ter	-72
▁was	-73
ir	-74
▁I	-75
el	-76
ver	-77
et	-78
▁B	-79
▁st	-80
▁is	-81
ro	-82
us	-83
▁that	-84
▁wh	-85
ith	-86
ec	-87
▁The	-88
▁with	-89
▁H	-90
▁at	-91
ill	-92
ld	-93
▁'	-94
▁sa	-95
ri	-96
▁it	-97
▁P	-98
▁as	-99
un	-100
▁an	-101
ce	-102
ation	-103
▁al	-104
▁said	-105
▁y	-106
ers	-107
her	-108
ear	-109
▁his	-110
▁ha	-111
os	-112
ra	-113
▁W	-114
and	-115
ch	-116
▁D	-117
ul	-118
▁L	-119
ts	-120
igh	-121
op	-122
th	-123
ag	-124
rom	-125
▁R	-126
ke	-127
▁F	-128
▁con	-129
est	-130
em	-131
ore	-132
if	-133
pp	-134
▁have	-135
▁from	-136
▁r	-137
▁N	-138
▁has	-139
our	-140
▁1	-141
▁G	-142
▁are	-143
▁by	-144
▁sh	-145
ain	-146
▁her	-147
▁2	-148
▁ch	-149
ew	-150
ted	-151
▁v	-152
▁com	-153
od	-154
res	-155
▁J	-156
ate	-157
▁E	-158
ould	-159
▁"	-160
▁de	-161
▁le	-162
up	-163
end	-164
▁we	-165
ast	-166
▁not	-167
ess	-168
▁se	-169
ack	-170
ight	-171
ct	-172
um	-173
gh	-174
all	-175
ust	-176
▁ex	-177
▁j	-178
▁O	-179
ab	-180
ity	-181
▁who	-182
▁af	-183
▁pro	-184
se	-185
▁had	-186
ist	-187
ard	-188
ive	-189
▁sp	-190
▁whe	-191
ere	-192
art	-193
ice	-194
ak	-195
oc	-196
ok	-197
▁pl	-198
▁she	-199
rou	-200
▁su	-201
red	-202
ment	-203
ome	-204
ies	-205
▁ab	-206
ort	-207
oun	-208
iv	-209
▁U	-210
▁been	-211
▁they	-212
▁after	-213
▁were	-214
ud	-215
▁k	-216
▁their	-217
ge	-218
out	-219
qu	-220
ich	-221
ost	-222
▁but	-223
00	-224
▁go	-225
▁-	-226
ide	-227
▁K	-228
▁wor	-229
ant	-230
ell	-231
▁out	-232
▁or	-233
▁will	-234
▁cl	-235
▁off	-236
▁this	-237
ial	-238
ry	-239
▁year	-240
ie	-241
own	-242
ap	-243
one	-244
day	-245
ia	-246
ong	-247
▁up	-248
▁‘	-249
ine	-250
ff	-251
ren	-252
ous	-253
▁do	-254
cc	-255
ep	-256
ber	-257
▁ag	-258
▁ad	-259
ays	-260
ans	-261
▁un	-262
ord	-263
ime	-264
▁which	-265
und	-266
▁can	-267
old	-268
▁ne	-269
▁St	-270
mer	-271
ict	-272
▁He	-273
ub	-274
▁int	-275
▁Ch	-276
▁us	-277
▁(	-278
ace	-279
ame	-280
ect	-281
ue	-282
▁one	-283
▁when	-284
ther	-285
▁all	-286
ally	-287
ated	-288
wo	-289
▁about	-290
age	-291
▁man	-292
so	-293
▁In	-294
ake	-295
▁res	-296
pl	-297
ary	-298
▁more	-299
▁pe	-300
ure	-301
▁you	-302
▁would	-303
ile	-304
▁him	-305
▁me	-306
.'	-307
▁inc	-308
ions	-309
ail	-310
▁over	-311
ond	-312
av	-313
ook	-314
ople	-315
oll	-316
very	-317
ian	-318
▁cont	-319
ild	-320
ound	-321
ence	-322
▁also	-323
▁ar	-324
ident	-325
ite	-326
ose	-327
ass	-328
ign	-329
ind	-330
ip	-331
▁so	-332
▁dis	-333
og	-334
ire	-335
▁rep	-336
▁people	-337
ree	-338
▁im	-339
▁sc	-340
▁Th	-341
ks	-342
ike	-343
ress	-344
▁pol	-345
▁pr	-346
▁20	-347
other	-348
▁bec	-349
▁two	-350
ru	-351
▁V	-352
ne	-353
ish	-354
▁It	-355
▁att	-356
▁than	-357
aus	-358
are	-359
ven	-360
per	-361
▁acc	-362
man	-363
▁comp	-364
,"	-365
ft	-366
▁fir	-367
▁into	-368
hed	-369
ick	-370
▁app	-371
oy	-372
ount	-373
ib	-374
▁new	-375
▁en	-376
▁per	-377
ough	-378
▁just	-379
▁Mr	-380
rit	-381
▁them	-382
▁te	-383
▁rec	-384
ved	-385
act	-386
▁time	-387
▁told	-388
▁could	-389
ors	-390
▁kn	-391
ark	-392
reat	-393
▁last	-394
▁years	-395
▁work	-396
▁3	-397
▁other	-398
amp	-399
ach	-400
uc	-401
▁part	-402
ade	-403
▁first	-404
ning	-405
▁there	-406
ations	-407
iss	-408
ife	-409
The	-410
▁Y	-411
ged	-412
▁its	-413
fore	-414
aw	-415
ob	-416
ance	-417
iz	-418
anc	-419
able	-420
▁tr	-421
ied	-422
ting	-423
."	-424
▁my	-425
▁like	-426
ath	-427
▁But	-428
▁bl	-429
ily	-430
ase	-431
ood	-432
round	-433
▁back	-434
▁ro	-435
▁play	-436
ens	-437
ause	-438
land	-439
▁fam	-440
▁some	-441
ove	-442
▁get	-443
▁before	-444
▁201	-445
▁qu	-446
▁pre	-447
▁again	-448
ater	-449
ek	-450
ned	-451
▁down	-452
▁fl	-453
ool	-454
▁19	-455
▁what	-456
ical	-457
▁being	-458
▁any	-459
orm	-460
▁show	-461
ink	-462
ious	-463
pt	-464
▁inv	-465
,'	-466
ang	-467
▁no	-468
under	-469
we	-470
▁now	-471
uring	-472
▁car	-473
▁tra	-474
▁sec	-475
▁Un	-476
▁Al	-477
ons	-478
000	-479
▁child	-480
▁cr	-481
▁mon	-482
ult	-483
▁She	-484
year	-485
ents	-486
oin	-487
▁inter	-488
▁ser	-489
▁des	-490
▁home	-491
▁offic	-492
ition	-493
▁say	-494
▁did	-495
ates	-496
ton	-497
vel	-498
▁dec	-499
ings	-500
rough	-501
▁am	-502
ory	-503
▁says	-504
▁New	-505
lud	-506
▁--	-507
▁under	-508
ited	-509
▁br	-510
,000	-511
enc	-512
▁act	-513
lic	-514
▁An	-515
▁found	-516
over	-517
au	-518
▁if	-519
▁police	-520
▁4	-521
ters	-522
▁call	-523
wn	-524
▁fe	-525
▁ph	-526
▁where	-527
ving	-528
ured	-529
iver	-530
▁add	-531
als	-532
ince	-533
▁because	-534
ash	-535
ier	-536
oot	-537
▁£	-538
▁rem	-539
▁three	-540
illion	-541
▁wom	-542
aking	-543
ock	-544
▁only	-545
▁includ	-546
▁Le	-547
ather	-548
▁look	-549
▁200	-550
▁bel	-551
▁month	-552
▁how	-553
ss	-554
▁ra	-555
▁char	-556
▁sur	-557
fer	-558
▁family	-559
air	-560
▁comm	-561
▁cent	-562
▁imp	-563
▁made	-564
▁hel	-565
ational	-566
▁bet	-567
▁against	-568
▁exp	-569
riend	-570
▁5	-571
▁while	-572
▁count	-573
▁during	-574
▁gr	-575
ating	-576
oss	-577
▁our	-578
son	-579
rib	-580
aim	-581
ered	-582
ues	-583
▁week	-584
ty	-585
ise	-586
led	-587
ourt	-588
▁And	-589
▁most	-590
ublic	-591
▁then	-592
ph	-593
elf	-594
▁help	-595
ouse	-596
▁ev	-597
▁ac	-598
▁aw	-599
▁through	-600
ful	-601
▁ins	-602
te	-603
▁Sc	-604
▁ear	-605
▁fin	-606
▁claim	-607
ital	-608
ix	-609
▁left	-610
▁Mar	-611
▁day	-612
▁repor	-613
▁Fr	-614
atch	-615
urn	-616
ities	-617
hn	-618
▁min	-619
We	-620
▁def	-621
▁even	-622
hen	-623
▁lead	-624
▁supp	-625
ope	-626
▁Sp	-627
▁every	-628
▁kill	-629
▁make	-630
.’	-631
tle	-632
augh	-633
ased	-634
chool	-635
▁pres	-636
▁rel	-637
orn	-638
▁em	-639
uch	-640
▁around	-641
▁very	-642
ared	-643
▁know	-644
▁Af	-645
▁world	-646
▁tri	-647
It	-648
irl	-649
ger	-650
▁star	-651
▁life	-652
▁cons	-653
ording	-654
ov	-655
les	-656
▁ret	-657
▁ke	-658
▁6	-659
hes	-660
ah	-661
alk	-662
▁Brit	-663
lect	-664
▁own	-665
▁need	-666
med	-667
▁En	-668
▁team	-669
▁Ar	-670
▁sm	-671
hing	-672
▁bu	-673
get	-674
▁Wh	-675
▁four	-676
▁belie	-677
▁take	-678
▁children	-679
nment	-680
meric	-681
▁don	-682
▁see	-683
der	-684
iew	-685
▁$	-686
gg	-687
ollow	-688
sh	-689
ork	-690
xt	-691
ures	-692
▁end	-693
erson	-694
▁inf	-695
ected	-696
▁reg	-697
▁set	-698
outh	-699
roup	-700
▁way	-701
ody	-702
ble	-703
▁ass	-704
▁win	-705
▁Br	-706
▁long	-707
▁should	-708
ull	-709
▁many	-710
▁since	-711
▁attack	-712
ember	-713
▁head	-714
ale	-715
▁think	-716
▁ind	-717
ave	-718
▁hand	-719
ward	-720
gan	-721
ement	-722
ric	-723
az	-724
ced	-725
▁war	-726
▁well	-727
ual	-728
ives	-729
▁med	-730
ason	-731
iel	-732
▁gover	-733
ists	-734
▁still	-735
▁invest	-736
▁Sh	-737
▁law	-738
oth	-739
▁may	-740
▁stud	-741
aren	-742
▁going	-743
imes	-744
▁Americ	-745
alth	-746
ont	-747
osp	-748
▁death	-749
▁plan	-750
▁your	-751
▁vide	-752
▁mil	-753
▁Jo	-754
▁happ	-755
▁friend	-756
▁Re	-757
▁pict	-758
▁co	-759
ised	-760
▁those	-761
ling	-762
ene	-763
▁follow	-764
▁though	-765
ney	-766
▁They	-767
uss	-768
cer	-769
▁high	-770
ner	-771
▁ter	-772
▁conf	-773
▁near	-774
▁gu	-775
ames	-776
▁op	-777
▁cap	-778
ank	-779
any	-780
uth	-781
▁right	-782
▁school	-783
▁We	-784
▁tak	-785
▁group	-786
▁resp	-787
ves	-788
▁bo	-789
▁United	-790
ween	-791
▁mother	-792
ister	-793
ama	-794
ug	-795
▁official	-796
▁country	-797
ll	-798
▁night	-799
ady	-800
▁sign	-801
ible	-802
▁used	-803
its	-804
ross	-805
▁dif	-806
br	-807
ular	-808
ott	-809
▁between	-810
▁put	-811
ley	-812
▁–	-813
▁disc	-814
tain	-815
ck	-816
▁Cl	-817
▁including	-818
▁mar	-819
▁run	-820
▁such	-821
ral	-822
ms	-823
▁former	-824
▁much	-825
▁Eng	-826
ster	-827
ange	-828
ants	-829
▁second	-830
ury	-831
io	-832
▁government	-833
▁7	-834
▁Pol	-835
▁col	-836
▁want	-837
ham	-838
▁video	-839
▁leg	-840
bs	-841
▁court	-842
ax	-843
rest	-844
ened	-845
ina	-846
▁che	-847
tern	-848
▁public	-849
▁pass	-850
olog	-851
▁sl	-852
▁dri	-853
▁Is	-854
▁took	-855
urs	-856
oung	-857
▁fr	-858
ecut	-859
▁good	-860
ower	-861
ote	-862
NN	-863
ever	-864
▁num	-865
▁called	-866
▁investig	-867
ness	-868
▁ask	-869
▁sent	-870
▁10	-871
▁next	-872
▁women	-873
ision	-874
ret	-875
orth	-876
ins	-877
gr	-878
▁str	-879
ute	-880
▁according	-881
side	-882
app	-883
▁ext	-884
▁five	-885
ines	-886
▁wr	-887
rem	-888
▁vict	-889
self	-890
ics	-891
ple	-892
▁care	-893
ospital	-894
▁person	-895
▁prot	-896
▁girl	-897
▁days	-898
ison	-899
▁alle	-900
▁Chr	-901
▁another	-902
▁later	-903
▁As	-904
eral	-905
oney	-906
▁sy	-907
ours	-908
▁cle	-909
▁cond	-910
▁ent	-911
ondon	-912
used	-913
ets	-914
▁Mon	-915
▁stat	-916
▁London	-917
▁ref	-918
▁Pr	-919
▁phot	-920
▁never	-921
omet	-922
bers	-923
▁loc	-924
▁CNN	-925
▁added	-926
hip	-927
▁contr	-928
▁At	-929
▁air	-930
▁rele	-931
▁Q	-932
▁away	-933
ivers	-934
▁Mc	-935
ague	-936
ages	-937
▁seen	-938
▁bus	-939
▁inj	-940
▁dr	-941
▁months	-942
▁beh	-943
▁mem	-944
▁vis	-945
ative	-946
▁Ob	-947
▁post	-948
▁fil	-949
▁De	-950
▁adm	-951
uthor	-952
▁Z	-953
ments	-954
▁come	-955
iving	-956
▁got	-957
ually	-958
▁bre	-959
▁contin	-960
▁million	-961
▁find	-962
▁same	-963
▁young	-964
vers	-965
▁reported	-966
▁This	-967
▁camp	-968
▁men	-969
▁these	-970
▁big	-971
▁try	-972
▁exper	-973
iday	-974
line	-975
omm	-976
ights	-977
▁report	-978
▁does	-979
vice	-980
▁poin	-981
ices	-982
iam	-983
by	-984
atur	-985
▁case	-986
▁came	-987
▁went	-988
▁taken	-989
▁Bar	-990
alf	-991
▁both	-992
▁place	-993
▁For	-994
▁Car	-995
▁cre	-996
osed	-997
ired	-998
▁John	-999
▁top	-1000
ex	-1001
▁today	-1002
▁six	-1003
▁spe	-1004
ility	-1005
▁cur	-1006
▁eff	-1007
▁foot	-1008
▁arrest	-1009
ges	-1010
pr	-1011
▁miss	-1012
hel	-1013
▁Police	-1014
▁sex	-1015
usp	-1016
ient	-1017
▁state	-1018
ik	-1019
▁ann	-1020
▁8	-1021
..	-1022
▁Obama	-1023
▁Dav	-1024
irect	-1025
ived	-1026
▁9	-1027
ony	-1028
aj	-1029
ands	-1030
▁died	-1031
▁prov	-1032
nes	-1033
▁woman	-1034
▁real	-1035
▁dep	-1036
▁lit	-1037
▁house	-1038
▁On	-1039
▁expl	-1040
Th	-1041
riv	-1042
▁spok	-1043
ched	-1044
▁cou	-1045
duc	-1046
ele	-1047
▁iss	-1048
▁use	-1049
▁Wor	-1050
▁sk	-1051
▁rest	-1052
▁really	-1053
▁feel	-1054
▁spec	-1055
ys	-1056
aughter	-1057
ency	-1058
▁South	-1059
ield	-1060
▁prev	-1061
▁too	-1062
▁trans	-1063
▁somet	-1064
▁manag	-1065
▁Bl	-1066
ried	-1067
ific	-1068
▁Sy	-1069
▁didn	-1070
▁father	-1071
▁susp	-1072
uct	-1073
▁far	-1074
▁remain	-1075
ces	-1076
▁rece	-1077
▁killed	-1078
rent	-1079
▁recent	-1080
▁gl	-1081
ird	-1082
▁pay	-1083
▁det	-1084
▁wife	-1085
▁Aust	-1086
ten	-1087
▁health	-1088
▁Eur	-1089
▁sub	-1090
▁fac	-1091
▁great	-1092
ball	-1093
earch	-1094
▁England	-1095
▁news	-1096
to	-1097
orts	-1098
urned	-1099
▁game	-1100
til	-1101
▁support	-1102
▁best	-1103
oved	-1104
▁milit	-1105
▁gen	-1106
▁met	-1107
aff	-1108
▁sever	-1109
▁boy	-1110
amer	-1111
▁season	-1112
'.	-1113
▁perf	-1114
▁number	-1115
▁sw	-1116
▁son	-1117
▁lar	-1118
▁allow	-1119
▁York	-1120
pped	-1121
ined	-1122
▁club	-1123
iness	-1124
▁World	-1125
▁aff	-1126
▁Ro	-1127
▁face	-1128
▁par	-1129
▁stop	-1130
▁side	-1131
▁inst	-1132
iet	-1133
▁president	-1134
▁Christ	-1135
rug	-1136
ane	-1137
▁keep	-1138
▁body	-1139
▁reve	-1140
▁shot	-1141
ering	-1142
ued	-1143
▁differ	-1144
iven	-1145
▁sit	-1146
thing	-1147
ann	-1148
▁British	-1149
▁Pres	-1150
view	-1151
urity	-1152
▁sim	-1153
▁money	-1154
▁Sund	-1155
uck	-1156
▁hospital	-1157
▁move	-1158
istr	-1159
▁appear	-1160
▁spokes	-1161
▁poss	-1162
▁suff	-1163
▁ve	-1164
▁pat	-1165
▁few	-1166
inal	-1167
▁Be	-1168
ways	-1169
▁let	-1170
▁Sunday	-1171
▁City	-1172
ism	-1173
▁direct	-1174
itted	-1175
▁del	-1176
anted	-1177
▁How	-1178
ense	-1179
ided	-1180
▁lot	-1181
▁author	-1182
▁here	-1183
artment	-1184
iol	-1185
▁dem	-1186
ished	-1187
▁West	-1188
▁record	-1189
▁opp	-1190
▁One	-1191
▁start	-1192
▁until	-1193
▁intern	-1194
▁thought	-1195
con	-1196
▁won	-1197
ional	-1198
▁paren	-1199
ending	-1200
ately	-1201
com	-1202
▁victim	-1203
▁hit	-1204
enn	-1205
▁pop	-1206
▁having	-1207
ats	-1208
▁12	-1209
▁mur	-1210
▁without	-1211
▁build	-1212
▁open	-1213
▁UK	-1214
▁old	-1215
▁ago	-1216
▁desc	-1217
▁polit	-1218
▁Rep	-1219
▁hours	-1220
co	-1221
ended	-1222
▁company	-1223
▁invol	-1224
roll	-1225
▁saying	-1226
▁Har	-1227
▁Monday	-1228
iversity	-1229
▁President	-1230
▁fire	-1231
ones	-1232
idence	-1233
▁mod	-1234
▁proble	-1235
▁city	-1236
▁Austral	-1237
▁soc	-1238
▁May	-1239
▁15	-1240
▁Min	-1241
be	-1242
▁times	-1243
port	-1244
▁commun	-1245
▁job	-1246
ror	-1247
els	-1248
▁past	-1249
ief	-1250
He	-1251
aign	-1252
att	-1253
▁train	-1254
▁following	-1255
atic	-1256
stem	-1257
cl	-1258
ially	-1259
▁comple	-1260
uesday	-1261
▁League	-1262
▁daughter	-1263
▁prom	-1264
▁appe	-1265
▁Europe	-1266
▁Tuesday	-1267
▁each	-1268
▁alleged	-1269
▁hum	-1270
ogra	-1271
▁reveal	-1272
▁oper	-1273
▁asked	-1274
▁18	-1275
▁Ind	-1276
▁water	-1277
amed	-1278
ising	-1279
aul	-1280
utes	-1281
▁across	-1282
▁Her	-1283
...	-1284
▁dead	-1285
ailed	-1286
▁stand	-1287
▁Se	-1288
▁There	-1289
▁stri	-1290
▁little	-1291
▁known	-1292
▁Ger	-1293
ention	-1294
▁quest	-1295
▁mid	-1296
ior	-1297
▁Friday	-1298
▁Ad	-1299
▁Miss	-1300
▁David	-1301
aid	-1302
▁bro	-1303
▁cost	-1304
ience	-1305
▁something	-1306
ready	-1307
▁hard	-1308
▁Wed	-1309
▁Am	-1310
row	-1311
▁deal	-1312
▁given	-1313
oke	-1314
ying	-1315
▁clear	-1316
velop	-1317
lier	-1318
pite	-1319
rop	-1320
use	-1321
▁Ph	-1322
▁Cup	-1323
▁able	-1324
▁pos	-1325
▁along	-1326
▁statement	-1327
erv	-1328
▁stru	-1329
▁elect	-1330
▁campaign	-1331
▁travel	-1332
overed	-1333
▁area	-1334
▁couple	-1335
anche	-1336
▁drug	-1337
aturday	-1338
aun	-1339
▁officials	-1340
band	-1341
▁His	-1342
▁av	-1343
▁system	-1344
▁Russ	-1345
eks	-1346
▁already	-1347
nesday	-1348
▁Wednesday	-1349
▁mark	-1350
▁Saturday	-1351
right	-1352
▁pictured	-1353
▁£1	-1354
▁American	-1355
▁viol	-1356
▁half	-1357
iting	-1358
reen	-1359
ized	-1360
cess	-1361
ump	-1362
gy	-1363
ploy	-1364
▁test	-1365
ards	-1366
▁fight	-1367
▁coun	-1368
▁ob	-1369
ects	-1370
▁members	-1371
aring	-1372
▁friends	-1373
▁Pe	-1374
ajor	-1375
reet	-1376
▁tell	-1377
▁join	-1378
▁saf	-1379
▁current	-1380
▁business	-1381
▁working	-1382
▁adv	-1383
ection	-1384
▁always	-1385
cent	-1386
▁believe	-1387
▁Ge	-1388
ified	-1389
▁cele	-1390
▁incident	-1391
▁Col	-1392
▁Fl	-1393
▁inform	-1394
▁That	-1395
▁parents	-1396
),	-1397
oor	-1398
▁caus	-1399
▁outside	-1400
▁close	-1401
▁North	-1402
▁behind	-1403
af	-1404
▁Co	-1405
▁treat	-1406
▁started	-1407
▁199	-1408
head	-1409
▁Will	-1410
▁Ms	-1411
▁meet	-1412
▁taking	-1413
ries	-1414
atter	-1415
▁11	-1416
▁describ	-1417
▁weeks	-1418
▁fact	-1419
pe	-1420
▁art	-1421
▁Ab	-1422
▁mor	-1423
,’	-1424
▁concer	-1425
▁event	-1426
▁When	-1427
▁30	-1428
rew	-1429
ursday	-1430
▁est	-1431
▁Thursday	-1432
▁incre	-1433
▁less	-1434
▁early	-1435
▁become	-1436
▁Pro	-1437
akes	-1438
▁After	-1439
iously	-1440
ians	-1441
usband	-1442
ored	-1443
▁power	-1444
▁requ	-1445
ming	-1446
▁military	-1447
ution	-1448
▁walk	-1449
▁using	-1450
▁mom	-1451
▁develop	-1452
ccess	-1453
▁hold	-1454
ests	-1455
ales	-1456
▁prof	-1457
▁give	-1458
▁prison	-1459
▁Comm	-1460
▁ap	-1461
▁heard	-1462
▁whether	-1463
▁different	-1464
▁sn	-1465
ained	-1466
▁lost	-1467
▁Sec	-1468
▁sold	-1469
ran	-1470
▁conv	-1471
▁fore	-1472
rain	-1473
enal	-1474
book	-1475
▁press	-1476
▁making	-1477
▁cer	-1478
oon	-1479
▁local	-1480
▁gun	-1481
▁players	-1482
▁several	-1483
less	-1484
▁hist	-1485
uper	-1486
▁design	-1487
the	-1488
▁view	-1489
▁book	-1490
▁least	-1491
▁ed	-1492
▁released	-1493
▁wanted	-1494
▁threat	-1495
▁seem	-1496
▁small	-1497
ars	-1498
eng	-1499
▁claims	-1500
ester	-1501
▁announ	-1502
▁es	-1503
▁2012	-1504
BC	-1505
▁Mich	-1506
▁love	-1507
▁crit	-1508
ael	-1509
▁might	-1510
way	-1511
fic	-1512
▁security	-1513
▁saw	-1514
▁arrested	-1515
most	-1516
▁husband	-1517
ject	-1518
▁murder	-1519
▁bab	-1520
▁sum	-1521
▁cut	-1522
anchester	-1523
gram	-1524
▁ever	-1525
▁shows	-1526
ators	-1527
▁Court	-1528
▁front	-1529
▁better	-1530
ases	-1531
▁things	-1532
▁ris	-1533
udge	-1534
une	-1535
▁mess	-1536
▁All	-1537
▁party	-1538
▁food	-1539
▁Scroll	-1540
▁final	-1541
▁Manchester	-1542
▁Mrs	-1543
secut	-1544
▁major	-1545
▁By	-1546
▁Dr	-1547
▁trying	-1548
▁sing	-1549
▁House	-1550
▁talk	-1551
▁spokesman	-1552
elt	-1553
ush	-1554
▁Ed	-1555
▁full	-1556
▁must	-1557
▁room	-1558
▁proper	-1559
▁celebr	-1560
▁tax	-1561
▁red	-1562
▁media	-1563
▁el	-1564
▁Britain	-1565
▁Tr	-1566
ium	-1567
50	-1568
my	-1569
million	-1570
This	-1571
ator	-1572
▁Afric	-1573
▁cust	-1574
▁University	-1575
cher	-1576
wit	-1577
▁success	-1578
▁free	-1579
of	-1580
▁dra	-1581
here	-1582
▁consid	-1583
▁Jan	-1584
▁among	-1585
▁minutes	-1586
▁officers	-1587
ize	-1588
▁himself	-1589
▁shoot	-1590
let	-1591
▁Gr	-1592
▁fur	-1593
ressed	-1594
que	-1595
▁short	-1596
conom	-1597
ern	-1598
gether	-1599
▁main	-1600
▁Cr	-1601
ically	-1602
▁together	-1603
▁hot	-1604
▁pain	-1605
▁claimed	-1606
▁goal	-1607
go	-1608
▁revealed	-1609
▁looking	-1610
▁emer	-1611
▁attem	-1612
alif	-1613
1,	-1614
▁Dep	-1615
▁held	-1616
▁watch	-1617
ances	-1618
▁sugg	-1619
▁16	-1620
▁live	-1621
▁Face	-1622
▁rul	-1623
▁di	-1624
▁began	-1625
▁name	-1626
▁tre	-1627
▁stay	-1628
▁wrote	-1629
ides	-1630
▁morning	-1631
▁earlier	-1632
cept	-1633
▁partic	-1634
▁decision	-1635
▁occ	-1636
▁import	-1637
ington	-1638
▁Off	-1639
▁change	-1640
istan	-1641
echn	-1642
left	-1643
▁staff	-1644
gin	-1645
▁program	-1646
▁Syri	-1647
ler	-1648
▁form	-1649
▁land	-1650
▁States	-1651
▁organ	-1652
urch	-1653
▁laun	-1654
▁level	-1655
str	-1656
▁dog	-1657
▁wa	-1658
sea	-1659
ald	-1660
uge	-1661
▁investigation	-1662
▁arri	-1663
▁If	-1664
▁Facebook	-1665
▁ident	-1666
ford	-1667
▁Par	-1668
room	-1669
▁once	-1670
▁appro	-1671
ev	-1672
acy	-1673
allen	-1674
▁football	-1675
▁became	-1676
aced	-1677
ept	-1678
▁visit	-1679
▁grow	-1680
bed	-1681
▁third	-1682
▁enough	-1683
ille	-1684
▁heart	-1685
▁ban	-1686
▁point	-1687
3,	-1688
gest	-1689
▁Man	-1690
▁Geor	-1691
▁compl	-1692
▁ground	-1693
▁information	-1694
▁priv	-1695
▁Con	-1696
▁However	-1697
▁return	-1698
▁ey	-1699
▁expected	-1700
ech	-1701
▁hom	-1702
▁cor	-1703
▁deb	-1704
▁Cent	-1705
aster	-1706
ature	-1707
▁black	-1708
▁why	-1709
▁dist	-1710
▁You	-1711
ey	-1712
▁wear	-1713
▁kid	-1714
ai	-1715
lish	-1716
ocr	-1717
▁read	-1718
ology	-1719
esterday	-1720
▁seven	-1721
▁cour	-1722
ung	-1723
▁authorities	-1724
▁others	-1725
▁Dem	-1726
▁econom	-1727
ops	-1728
▁large	-1729
ences	-1730
wards	-1731
▁Ju	-1732
aut	-1733
▁doct	-1734
▁evidence	-1735
▁done	-1736
▁German	-1737
reed	-1738
den	-1739
▁break	-1740
ole	-1741
ampions	-1742
▁accused	-1743
▁hope	-1744
▁National	-1745
▁ple	-1746
aving	-1747
▁getting	-1748
▁14	-1749
ee	-1750
▁Gu	-1751
▁match	-1752
▁doing	-1753
▁No	-1754
▁compet	-1755
▁eight	-1756
▁social	-1757
cil	-1758
▁likely	-1759
’.	-1760
▁Ste	-1761
▁site	-1762
▁El	-1763
ably	-1764
▁tar	-1765
▁US	-1766
▁phone	-1767
▁eng	-1768
▁bar	-1769
▁Michael	-1770
▁comes	-1771
▁due	-1772
▁dam	-1773
▁almost	-1774
stand	-1775
▁relations	-1776
▁interview	-1777
▁class	-1778
ream	-1779
aly	-1780
ead	-1781
▁eas	-1782
▁Republic	-1783
▁fell	-1784
▁den	-1785
idge	-1786
▁service	-1787
uary	-1788
ches	-1789
▁17	-1790
term	-1791
▁writ	-1792
ighb	-1793
▁fans	-1794
▁William	-1795
▁lives	-1796
eb	-1797
ds	-1798
▁control	-1799
▁charges	-1800
▁War	-1801
▁happened	-1802
▁spent	-1803
▁Count	-1804
▁brother	-1805
▁ball	-1806
▁tried	-1807
▁age	-1808
▁produc	-1809
▁Park	-1810
▁fut	-1811
▁Char	-1812
▁polic	-1813
urg	-1814
omb	-1815
▁hop	-1816
mp	-1817
▁ide	-1818
pool	-1819
though	-1820
▁photogra	-1821
lam	-1822
dle	-1823
▁international	-1824
▁pot	-1825
▁list	-1826
▁fun	-1827
ox	-1828
▁Ser	-1829
ission	-1830
-1	-1831
▁thing	-1832
▁road	-1833
▁techn	-1834
▁late	-1835
▁$1	-1836
hern	-1837
▁inside	-1838
▁host	-1839
sp	-1840
▁lo	-1841
▁line	-1842
▁manager	-1843
There	-1844
ictured	-1845
sel	-1846
▁anim	-1847
▁Pal	-1848
▁execut	-1849
irth	-1850
▁human	-1851
▁often	-1852
▁baby	-1853
▁played	-1854
anger	-1855
stit	-1856
▁terror	-1857
▁important	-1858
▁leave	-1859
▁spot	-1860
raz	-1861
▁strong	-1862
▁involved	-1863
▁charged	-1864
ails	-1865
▁State	-1866
▁wind	-1867
itness	-1868
ocked	-1869
▁believed	-1870
▁fund	-1871
aper	-1872
▁mus	-1873
▁Chel	-1874
friend	-1875
▁trial	-1876
▁confir	-1877
▁2010	-1878
▁received	-1879
ients	-1880
▁town	-1881
ped	-1882
▁Acc	-1883
▁future	-1884
▁special	-1885
itions	-1886
▁25	-1887
▁office	-1888
▁gave	-1889
▁Ham	-1890
▁political	-1891
▁grand	-1892
▁film	-1893
ourn	-1894
▁Or	-1895
▁yet	-1896
ana	-1897
ories	-1898
▁described	-1899
▁webs	-1900
▁fig	-1901
▁online	-1902
▁further	-1903
▁equ	-1904
▁employ	-1905
▁question	-1906
ination	-1907
par	-1908
▁led	-1909
▁ant	-1910
aur	-1911
▁China	-1912
▁target	-1913
ape	-1914
witter	-1915
ective	-1916
▁50	-1917
aps	-1918
▁officer	-1919
▁Sm	-1920
igr	-1921
▁Dec	-1922
uff	-1923
▁national	-1924
ns	-1925
▁TV	-1926
ought	-1927
▁colle	-1928
▁tw	-1929
▁January	-1930
▁yesterday	-1931
▁bit	-1932
▁Paul	-1933
▁13	-1934
▁despite	-1935
ipp	-1936
yle	-1937
▁Ang	-1938
▁dou	-1939
▁prosecut	-1940
work	-1941
ocum	-1942
▁doesn	-1943
▁suggest	-1944
ortun	-1945
raq	-1946
▁living	-1947
de	-1948
▁bring	-1949
▁Intern	-1950
▁community	-1951
▁Twitter	-1952
ficult	-1953
▁Just	-1954
▁So	-1955
▁scene	-1956
They	-1957
▁James	-1958
ilar	-1959
▁order	-1960
▁within	-1961
▁lear	-1962
▁interest	-1963
▁light	-1964
▁Jack	-1965
orney	-1966
ring	-1967
▁action	-1968
▁Ex	-1969
ening	-1970
▁comment	-1971
▁process	-1972
lex	-1973
icle	-1974
▁cover	-1975
▁blood	-1976
▁birth	-1977
▁neighb	-1978
▁teen	-1979
▁bad	-1980
▁ahead	-1981
▁Iraq	-1982
iverpool	-1983
oci	-1984
▁legal	-1985
▁possible	-1986
▁training	-1987
bert	-1988
▁forward	-1989
for	-1990
▁someone	-1991
▁Gl	-1992
4,	-1993
not	-1994
▁player	-1995
▁turned	-1996
off	-1997
reme	-1998
▁turn	-1999
▁Res	-2000
ask	-2001
▁repl	-2002
▁activ	-2003
▁risk	-2004
▁Chelsea	-2005
▁bed	-2006
inc	-2007
▁leaders	-2008
ented	-2009
▁capt	-2010
▁Australia	-2011
arm	-2012
▁sol	-2013
▁difficult	-2014
rench	-2015
▁mot	-2016
▁Liverpool	-2017
ached	-2018
▁history	-2019
▁fall	-2020
▁Department	-2021
vices	-2022
▁imm	-2023
ensive	-2024
▁famil	-2025
ivil	-2026
▁Minister	-2027
2,	-2028
▁leader	-2029
▁Pl	-2030
▁Me	-2031
uted	-2032
▁100	-2033
ruct	-2034
▁Mart	-2035
▁ty	-2036
▁gra	-2037
▁admitted	-2038
▁reports	-2039
▁story	-2040
▁Sept	-2041
▁America	-2042
itive	-2043
▁summer	-2044
▁moment	-2045
▁bene	-2046
▁Prem	-2047
▁appeared	-2048
▁ste	-2049
▁Ass	-2050
▁sure	-2051
ety	-2052
eck	-2053
joy	-2054
▁squ	-2055
▁County	-2056
▁pub	-2057
▁kind	-2058
ills	-2059
attle	-2060
pictured	-2061
▁complete	-2062
ederal	-2063
▁Mil	-2064
▁White	-2065
▁wasn	-2066
▁Roy	-2067
lo	-2068
agn	-2069
irc	-2070
▁40	-2071
int	-2072
▁net	-2073
▁building	-2074
▁Mad	-2075
▁relationship	-2076
▁Em	-2077
▁mean	-2078
pril	-2079
ray	-2080
acher	-2081
▁Sen	-2082
▁guil	-2083
▁anything	-2084
▁director	-2085
aily	-2086
▁carry	-2087
▁worked	-2088
▁sour	-2089
▁quick	-2090
▁step	-2091
',	-2092
retary	-2093
▁search	-2094
me	-2095
aliforn	-2096
▁playing	-2097
▁series	-2098
erry	-2099
time	-2100
▁Mail	-2101
icted	-2102
▁Mor	-2103
ona	-2104
▁April	-2105
rought	-2106
oring	-2107
▁198	-2108
▁September	-2109
▁respons	-2110
▁March	-2111
duct	-2112
▁coming	-2113
▁docum	-2114
ential	-2115
▁News	-2116
iding	-2117
aught	-2118
gency	-2119
.5	-2120
isted	-2121
▁tour	-2122
▁mass	-2123
▁camer	-2124
ows	-2125
selves	-2126
ron	-2127
▁Air	-2128
▁2011	-2129
▁chief	-2130
ault	-2131
▁website	-2132
▁Californ	-2133
▁strik	-2134
cted	-2135
▁veh	-2136
20	-2137
▁Sw	-2138
▁role	-2139
▁Lab	-2140
▁vot	-2141
▁hor	-2142
▁nation	-2143
aded	-2144
▁students	-2145
▁Ear	-2146
▁Sam	-2147
ousands	-2148
pted	-2149
▁Go	-2150
▁forced	-2151
▁hol	-2152
▁miles	-2153
▁defend	-2154
▁exc	-2155
▁rights	-2156
▁showed	-2157
unt	-2158
▁French	-2159
uation	-2160
▁Des	-2161
ounds	-2162
ots	-2163
▁Mo	-2164
▁pick	-2165
rie	-2166
▁cancer	-2167
▁wrong	-2168
▁fav	-2169
▁App	-2170
▁June	-2171
ession	-2172
▁Rom	-2173
9,	-2174
▁course	-2175
▁ill	-2176
▁tem	-2177
▁prop	-2178
▁enjoy	-2179
▁insp	-2180
▁hig	-2181
▁While	-2182
▁beat	-2183
▁continue	-2184
▁Can	-2185
▁medical	-2186
aces	-2187
▁Kore	-2188
▁problem	-2189
▁plans	-2190
▁games	-2191
▁allegedly	-2192
▁Premier	-2193
▁i	-2194
▁announced	-2195
mber	-2196
iber	-2197
▁nothing	-2198
ico	-2199
▁Aug	-2200
▁treatment	-2201
▁arg	-2202
▁European	-2203
ades	-2204
▁California	-2205
▁contrib	-2206
field	-2207
▁Ne	-2208
▁pair	-2209
ino	-2210
gress	-2211
▁custom	-2212
▁study	-2213
▁popular	-2214
weet	-2215
▁victims	-2216
▁caused	-2217
▁challen	-2218
▁low	-2219
ata	-2220
▁soon	-2221
▁With	-2222
order	-2223
▁huge	-2224
▁recently	-2225
▁lim	-2226
ults	-2227
▁personal	-2228
rael	-2229
▁guilty	-2230
▁shop	-2231
cel	-2232
▁According	-2233
▁feat	-2234
▁fear	-2235
▁Some	-2236
▁nearly	-2237
elling	-2238
omp	-2239
▁surv	-2240
ovember	-2241
▁countries	-2242
If	-2243
▁hands	-2244
8,	-2245
▁white	-2246
▁Camer	-2247
▁lat	-2248
ery	-2249
enced	-2250
iers	-2251
You	-2252
por	-2253
▁condition	-2254
medi	-2255
osing	-2256
▁tit	-2257
min	-2258
▁issue	-2259
▁December	-2260
▁makes	-2261
▁looked	-2262
▁Wash	-2263
▁strugg	-2264
▁market	-2265
ither	-2266
▁August	-2267
▁whose	-2268
▁store	-2269
read	-2270
▁Oct	-2271
ps	-2272
ips	-2273
▁lif	-2274
▁enc	-2275
▁November	-2276
▁repres	-2277
▁sen	-2278
uel	-2279
▁certain	-2280
▁knew	-2281
▁ri	-2282
ging	-2283
▁dro	-2284
avy	-2285
▁posted	-2286
lection	-2287
▁tot	-2288
ference	-2289
iec	-2290
▁suffered	-2291
uries	-2292
6,	-2293
▁problems	-2294
▁picture	-2295
▁felt	-2296
▁Ars	-2297
7,	-2298
▁similar	-2299
ober	-2300
▁decided	-2301
▁gener	-2302
▁currently	-2303
ding	-2304
▁resident	-2305
30	-2306
▁—	-2307
▁career	-2308
▁judge	-2309
▁Israel	-2310
▁Democr	-2311
▁dest	-2312
▁Washington	-2313
▁disapp	-2314
▁super	-2315
▁val	-2316
sc	-2317
▁orig	-2318
▁coll	-2319
ett	-2320
▁tro	-2321
eth	-2322
▁brought	-2323
wh	-2324
yl	-2325
▁latest	-2326
▁chance	-2327
▁paid	-2328
▁result	-2329
lim	-2330
▁impro	-2331
▁means	-2332
▁Islam	-2333
▁July	-2334
▁park	-2335
She	-2336
▁cho	-2337
ulation	-2338
▁weekend	-2339
yn	-2340
ournal	-2341
▁include	-2342
▁er	-2343
▁moved	-2344
▁civil	-2345
▁ord	-2346
▁forces	-2347
▁Afgh	-2348
▁October	-2349
▁Phil	-2350
wood	-2351
iety	-2352
▁girls	-2353
▁trad	-2354
▁Hol	-2355
▁bur	-2356
▁East	-2357
▁sexual	-2358
▁Rich	-2359
▁Mid	-2360
▁rad	-2361
lear	-2362
lin	-2363
▁esc	-2364
▁named	-2365
ains	-2366
▁failed	-2367
▁Que	-2368
cast	-2369
▁France	-2370
▁serious	-2371
Wh	-2372
▁immedi	-2373
).	-2374
▁King	-2375
itch	-2376
mas	-2377
▁private	-2378
▁George	-2379
▁Iran	-2380
▁Alex	-2381
▁Pat	-2382
▁families	-2383
ida	-2384
▁McC	-2385
In	-2386
▁race	-2387
▁remains	-2388
▁track	-2389
▁Med	-2390
▁Dan	-2391
▁Sch	-2392
▁member	-2393
▁board	-2394
▁accident	-2395
▁mov	-2396
▁init	-2397
▁property	-2398
rid	-2399
▁lawy	-2400
kn	-2401
ky	-2402
reg	-2403
umb	-2404
▁access	-2405
undred	-2406
▁nine	-2407
▁particular	-2408
▁running	-2409
▁2013	-2410
▁Champions	-2411
▁missing	-2412
▁sle	-2413
▁crim	-2414
▁foc	-2415
▁Angel	-2416
▁Afghan	-2417
ilt	-2418
▁discovered	-2419
lev	-2420
ental	-2421
▁violence	-2422
▁...	-2423
▁prep	-2424
▁account	-2425
▁force	-2426
ston	-2427
▁flight	-2428
▁experience	-2429
▁thousands	-2430
asing	-2431
▁Mark	-2432
▁Mus	-2433
▁prob	-2434
▁cause	-2435
▁24	-2436
▁What	-2437
aged	-2438
▁aut	-2439
orman	-2440
fully	-2441
▁Su	-2442
▁cases	-2443
▁Cameron	-2444
lying	-2445
▁weap	-2446
lished	-2447
▁everything	-2448
▁Syria	-2449
▁themselves	-2450
ij	-2451
na	-2452
ners	-2453
sw	-2454
▁benef	-2455
ption	-2456
▁plane	-2457
▁anyone	-2458
▁decl	-2459
▁commit	-2460
▁danger	-2461
back	-2462
▁needed	-2463
▁points	-2464
▁attacks	-2465
▁happy	-2466
raft	-2467
▁wants	-2468
▁hearing	-2469
ises	-2470
▁critic	-2471
▁drink	-2472
▁Tra	-2473
▁Feb	-2474
▁understand	-2475
ibility	-2476
ara	-2477
▁leaving	-2478
▁allowed	-2479
isc	-2480
irt	-2481
▁tal	-2482
▁suppor	-2483
oid	-2484
▁Ber	-2485
▁Brown	-2486
ping	-2487
▁charge	-2488
aker	-2489
▁meas	-2490
▁safety	-2491
atives	-2492
▁Rob	-2493
▁round	-2494
▁shooting	-2495
▁helped	-2496
▁Lu	-2497
▁married	-2498
▁self	-2499
▁arrived	-2500
▁Last	-2501
ashed	-2502
▁Mur	-2503
▁killing	-2504
5,	-2505
ruary	-2506
▁Now	-2507
▁avail	-2508
▁Ben	-2509
▁Christmas	-2510
ze	-2511
▁BBC	-2512
▁fail	-2513
▁respond	-2514
▁Cor	-2515
uty	-2516
▁comments	-2517
▁based	-2518
▁federal	-2519
▁neg	-2520
IS	-2521
▁Two	-2522
▁expect	-2523
▁X	-2524
ese	-2525
▁February	-2526
▁circ	-2527
▁rather	-2528
▁research	-2529
▁creat	-2530
▁pri	-2531
▁meeting	-2532
▁crash	-2533
▁Wil	-2534
▁div	-2535
▁[	-2536
▁hon	-2537
▁student	-2538
▁cross	-2539
▁Mal	-2540
ease	-2541
▁driver	-2542
▁idea	-2543
▁chang	-2544
▁fem	-2545
▁21	-2546
▁safe	-2547
▁actually	-2548
like	-2549
▁Labour	-2550
▁message	-2551
iron	-2552
▁looks	-2553
ently	-2554
▁pun	-2555
▁bank	-2556
bo	-2557
▁patients	-2558
uce	-2559
▁gone	-2560
▁workers	-2561
But	-2562
▁Africa	-2563
▁injuries	-2564
▁laws	-2565
▁crime	-2566
▁Flor	-2567
▁vol	-2568
▁space	-2569
imate	-2570
mon	-2571
▁indust	-2572
acted	-2573
▁dress	-2574
form	-2575
▁Arsenal	-2576
hood	-2577
▁abuse	-2578
▁music	-2579
hire	-2580
▁Bro	-2581
▁Red	-2582
onald	-2583
▁images	-2584
ivid	-2585
▁Mex	-2586
iant	-2587
anged	-2588
▁couldn	-2589
▁station	-2590
iff	-2591
riage	-2592
yan	-2593
▁rac	-2594
▁Braz	-2595
▁percent	-2596
▁confirmed	-2597
▁photo	-2598
▁Bo	-2599
ality	-2600
ny	-2601
▁Lou	-2602
itional	-2603
▁image	-2604
▁£2	-2605
▁worth	-2606
▁situation	-2607
▁returned	-2608
▁everyone	-2609
ager	-2610
▁release	-2611
▁197	-2612
iod	-2613
▁attorney	-2614
▁deep	-2615
▁pract	-2616
▁conn	-2617
▁driving	-2618
▁unc	-2619
▁available	-2620
▁discuss	-2621
▁reach	-2622
rup	-2623
▁sister	-2624
▁Russia	-2625
▁needs	-2626
▁box	-2627
▁present	-2628
▁Gover	-2629
▁cand	-2630
▁Smith	-2631
▁reason	-2632
▁ten	-2633
▁admin	-2634
▁Prime	-2635
▁buy	-2636
apan	-2637
verage	-2638
▁cal	-2639
▁hotel	-2640
▁Scott	-2641
▁emb	-2642
▁Royal	-2643
▁areas	-2644
ken	-2645
▁MP	-2646
▁boss	-2647
▁Fer	-2648
▁bill	-2649
▁San	-2650
ergy	-2651
▁abs	-2652
▁billion	-2653
▁School	-2654
EO	-2655
▁groups	-2656
▁IS	-2657
▁Uk	-2658
lymp	-2659
▁position	-2660
▁sat	-2661
▁perform	-2662
▁Brazil	-2663
▁services	-2664
▁capital	-2665
▁policy	-2666
▁wat	-2667
key	-2668
▁English	-2669
▁whole	-2670
▁mag	-2671
han	-2672
▁longer	-2673
▁issues	-2674
▁key	-2675
▁victory	-2676
-0	-2677
▁lab	-2678
▁begin	-2679
▁check	-2680
▁Olymp	-2681
▁witness	-2682
che	-2683
ogn	-2684
▁injured	-2685
▁Not	-2686
▁amb	-2687
▁Scot	-2688
▁single	-2689
▁born	-2690
▁beaut	-2691
▁loss	-2692
▁hair	-2693
ival	-2694
ma	-2695
▁International	-2696
▁determ	-2697
▁Hospital	-2698
▁surpr	-2699
▁Day	-2700
▁injury	-2701
▁Florida	-2702
▁High	-2703
▁To	-2704
▁kept	-2705
gn	-2706
▁caught	-2707
▁matter	-2708
rey	-2709
▁stra	-2710
▁surger	-2711
▁Japan	-2712
▁More	-2713
▁coach	-2714
▁cannot	-2715
uit	-2716
▁pressure	-2717
▁ens	-2718
▁goals	-2719
▁dev	-2720
▁wearing	-2721
alled	-2722
▁leading	-2723
▁takes	-2724
▁pictures	-2725
▁phys	-2726
▁Te	-2727
▁crow	-2728
▁opportun	-2729
ert	-2730
oura	-2731
▁speak	-2732
arent	-2733
▁period	-2734
▁drugs	-2735
acter	-2736
undreds	-2737
▁z	-2738
▁senior	-2739
▁mat	-2740
▁const	-2741
▁door	-2742
pro	-2743
▁calls	-2744
▁anti	-2745
▁protect	-2746
▁draw	-2747
▁centre	-2748
omin	-2749
▁provide	-2750
body	-2751
▁ur	-2752
hol	-2753
epend	-2754
▁street	-2755
▁firm	-2756
▁fat	-2757
▁bas	-2758
▁created	-2759
icated	-2760
▁ran	-2761
ris	-2762
▁extra	-2763
chers	-2764
oming	-2765
▁trip	-2766
ushed	-2767
▁Sim	-2768
▁doctors	-2769
tee	-2770
▁cell	-2771
▁Australian	-2772
▁above	-2773
▁separ	-2774
▁Cong	-2775
phy	-2776
▁profess	-2777
ola	-2778
▁norm	-2779
▁pack	-2780
▁however	-2781
▁teacher	-2782
▁Street	-2783
oint	-2784
▁sun	-2785
mar	-2786
▁infl	-2787
▁individ	-2788
▁bomb	-2789
amb	-2790
▁alleg	-2791
▁complain	-2792
▁carried	-2793
ift	-2794
istration	-2795
▁quite	-2796
▁model	-2797
▁product	-2798
▁Martin	-2799
▁included	-2800
▁behav	-2801
▁educ	-2802
▁2009	-2803
▁page	-2804
iled	-2805
▁wed	-2806
▁Russian	-2807
play	-2808
urt	-2809
action	-2810
▁weight	-2811
▁rock	-2812
ashion	-2813
▁Vict	-2814
▁resc	-2815
roy	-2816
istrict	-2817
▁letter	-2818
▁seek	-2819
▁feet	-2820
▁performan	-2821
On	-2822
▁Secretary	-2823
▁financ	-2824
▁ele	-2825
▁comb	-2826
engers	-2827
▁Coun	-2828
▁continued	-2829
▁Clin	-2830
▁jail	-2831
▁warned	-2832
▁My	-2833
▁north	-2834
▁launched	-2835
oving	-2836
▁offer	-2837
▁compan	-2838
▁foreign	-2839
▁reb	-2840
▁piec	-2841
▁Black	-2842
▁biggest	-2843
▁var	-2844
oph	-2845
▁Tex	-2846
▁pred	-2847
▁chair	-2848
▁election	-2849
▁region	-2850
▁Ken	-2851
▁scored	-2852
▁rob	-2853
rovers	-2854
▁demand	-2855
▁assist	-2856
▁sal	-2857
ude	-2858
▁glob	-2859
inese	-2860
▁van	-2861
▁believes	-2862
ify	-2863
▁vote	-2864
▁refer	-2865
▁total	-2866
▁storm	-2867
▁hear	-2868
▁ren	-2869
▁stage	-2870
▁camera	-2871
0,000	-2872
onse	-2873
ander	-2874
▁photos	-2875
pm	-2876
▁answ	-2877
▁Do	-2878
▁Americans	-2879
▁link	-2880
▁Pak	-2881
▁Sir	-2882
▁homes	-2883
▁data	-2884
▁Germany	-2885
▁repe	-2886
ica	-2887
▁average	-2888
▁surgery	-2889
▁disease	-2890
▁south	-2891
▁criminal	-2892
urning	-2893
When	-2894
▁previously	-2895
▁mob	-2896
itor	-2897
▁field	-2898
▁battle	-2899
▁tru	-2900
▁previous	-2901
▁Gen	-2902
▁surve	-2903
▁quickly	-2904
cement	-2905
▁assault	-2906
▁Prince	-2907
▁penal	-2908
erc	-2909
▁works	-2910
▁instead	-2911
ificant	-2912
night	-2913
aves	-2914
ugh	-2915
▁mult	-2916
▁sentence	-2917
▁mind	-2918
▁brain	-2919
▁although	-2920
▁owner	-2921
▁non	-2922
▁states	-2923
oul	-2924
lands	-2925
ique	-2926
▁port	-2927
▁agency	-2928
ply	-2929
emy	-2930
berg	-2931
irst	-2932
ada	-2933
▁eye	-2934
▁appeal	-2935
▁immigr	-2936
▁famous	-2937
▁entire	-2938
▁disp	-2939
▁title	-2940
▁bag	-2941
▁fighting	-2942
▁22	-2943
▁Pakistan	-2944
▁journal	-2945
▁vill	-2946
ho	-2947
▁defe	-2948
▁users	-2949
▁Tur	-2950
▁price	-2951
icide	-2952
▁Bel	-2953
▁Scotland	-2954
▁regular	-2955
▁Val	-2956
▁Texas	-2957
▁cult	-2958
▁potential	-2959
▁Chinese	-2960
▁share	-2961
▁refused	-2962
▁marriage	-2963
shire	-2964
▁joined	-2965
▁196	-2966
▁pregn	-2967
500	-2968
inks	-2969
▁Daily	-2970
▁sil	-2971
▁female	-2972
▁Apple	-2973
vert	-2974
▁giving	-2975
▁crew	-2976
▁minister	-2977
inger	-2978
uk	-2979
▁poll	-2980
▁vehicle	-2981
ees	-2982
▁doub	-2983
▁hour	-2984
▁Part	-2985
▁kids	-2986
inary	-2987
ider	-2988
▁scient	-2989
▁source	-2990
▁Per	-2991
ode	-2992
▁2014	-2993
▁cred	-2994
▁sleep	-2995
▁quar	-2996
estern	-2997
▁immediately	-2998
▁Offic	-2999
▁table	-3000
▁exam	-3001
ization	-3002
▁Madrid	-3003
▁response	-3004
▁built	-3005
▁Richard	-3006
▁executive	-3007
▁attention	-3008
▁convicted	-3009
▁contract	-3010
illed	-3011
▁Government	-3012
▁denied	-3013
hest	-3014
▁clot	-3015
▁Chris	-3016
▁2008	-3017
▁trou	-3018
▁raised	-3019
ule	-3020
▁contact	-3021
oper	-3022
orthern	-3023
▁represent	-3024
rab	-3025
▁Port	-3026
▁spoke	-3027
ability	-3028
▁general	-3029
▁damage	-3030
▁isn	-3031
▁card	-3032
▁herself	-3033
▁Op	-3034
▁review	-3035
▁hous	-3036
▁thr	-3037
▁Real	-3038
oo	-3039
▁Act	-3040
▁holiday	-3041
▁towards	-3042
ogle	-3043
▁lived	-3044
▁range	-3045
▁Je	-3046
▁oppos	-3047
olf	-3048
▁common	-3049
▁har	-3050
▁Bay	-3051
▁details	-3052
▁cat	-3053
ya	-3054
▁create	-3055
▁followed	-3056
▁winning	-3057
▁technology	-3058
▁esp	-3059
bor	-3060
▁speed	-3061
ample	-3062
▁recogn	-3063
▁extreme	-3064
▁residents	-3065
▁Williams	-3066
▁Lib	-3067
▁Muslim	-3068
down	-3069
▁spend	-3070
▁60	-3071
oman	-3072
▁cru	-3073
▁conditions	-3074
gal	-3075
▁restaur	-3076
▁Clinton	-3077
▁candid	-3078
5.	-3079
▁Rod	-3080
oms	-3081
viron	-3082
TV	-3083
▁contributed	-3084
▁photograph	-3085
▁project	-3086
▁telev	-3087
▁Despite	-3088
▁Another	-3089
▁shown	-3090
My	-3091
onstr	-3092
▁events	-3093
▁address	-3094
▁broad	-3095
▁Ev	-3096
▁pil	-3097
▁comput	-3098
▁Health	-3099
▁controvers	-3100
ecially	-3101
otten	-3102
astic	-3103
▁questions	-3104
▁iP	-3105
▁Council	-3106
▁term	-3107
▁pret	-3108
▁words	-3109
▁bid	-3110
gu	-3111
▁either	-3112
▁Ke	-3113
▁cit	-3114
aud	-3115
▁mist	-3116
▁operation	-3117
▁conference	-3118
ram	-3119
▁mis	-3120
▁Queen	-3121
▁gold	-3122
▁offered	-3123
▁companies	-3124
sy	-3125
▁passed	-3126
▁stre	-3127
▁goes	-3128
▁impact	-3129
ires	-3130
▁Johnson	-3131
▁Peter	-3132
come	-3133
ecess	-3134
▁Congress	-3135
enger	-3136
▁attr	-3137
▁Franc	-3138
▁African	-3139
het	-3140
ender	-3141
▁probably	-3142
▁Afghanistan	-3143
▁ended	-3144
▁passengers	-3145
based	-3146
▁significant	-3147
▁inqu	-3148
ado	-3149
▁cars	-3150
▁tweet	-3151
**	-3152
▁Spe	-3153
▁pul	-3154
▁finally	-3155
▁trib	-3156
yc	-3157
illa	-3158
▁happen	-3159
imb	-3160
▁vers	-3161
▁jump	-3162
iction	-3163
fort	-3164
▁Google	-3165
▁results	-3166
▁Republican	-3167
▁aud	-3168
ural	-3169
▁newsp	-3170
▁customers	-3171
▁deliver	-3172
ancy	-3173
▁appears	-3174
▁rare	-3175
earchers	-3176
▁rout	-3177
▁wide	-3178
ID	-3179
▁remember	-3180
▁1,	-3181
▁poor	-3182
▁stopped	-3183
▁published	-3184
▁Office	-3185
▁apparent	-3186
▁else	-3187
ini	-3188
▁seems	-3189
sex	-3190
▁occur	-3191
▁focus	-3192
▁partner	-3193
▁Kim	-3194
▁striker	-3195
▁Def	-3196
ground	-3197
▁peace	-3198
urb	-3199
ca	-3200
▁industry	-3201
▁Mic	-3202
mark	-3203
▁clean	-3204
▁Cam	-3205
▁rev	-3206
▁floor	-3207
HS	-3208
▁launch	-3209
▁sell	-3210
▁allegations	-3211
▁signed	-3212
▁increase	-3213
▁spending	-3214
▁reportedly	-3215
asons	-3216
▁changed	-3217
▁opening	-3218
▁Inst	-3219
▁ille	-3220
unk	-3221
chie	-3222
▁23	-3223
iger	-3224
▁captain	-3225
▁Jackson	-3226
▁pet	-3227
▁hundreds	-3228
▁troops	-3229
▁alone	-3230
▁squad	-3231
▁weather	-3232
▁growing	-3233
▁Former	-3234
▁financial	-3235
▁snow	-3236
omas	-3237
raw	-3238
vironment	-3239
▁especially	-3240
ceed	-3241
▁faces	-3242
▁opened	-3243
ibly	-3244
▁oil	-3245
ishing	-3246
▁Wales	-3247
▁Cap	-3248
ellig	-3249
▁lack	-3250
▁emergency	-3251
▁pan	-3252
▁prevent	-3253
▁brand	-3254
▁bul	-3255
▁simply	-3256
▁Louis	-3257
7.	-3258
▁cris	-3259
▁mill	-3260
▁skin	-3261
▁encoura	-3262
while	-3263
▁Associ	-3264
▁Los	-3265
oud	-3266
ension	-3267
▁enter	-3268
alls	-3269
arr	-3270
▁challenge	-3271
▁traff	-3272
icket	-3273
▁consum	-3274
▁surround	-3275
▁clos	-3276
▁parts	-3277
overy	-3278
▁Carol	-3279
▁Che	-3280
adium	-3281
▁shock	-3282
▁aftern	-3283
▁agreed	-3284
set	-3285
▁score	-3286
▁aged	-3287
▁figures	-3288
▁treated	-3289
▁kick	-3290
▁wedding	-3291
▁ISIS	-3292
▁obs	-3293
▁attend	-3294
▁showing	-3295
▁broke	-3296
▁size	-3297
ux	-3298
▁consider	-3299
pher	-3300
orks	-3301
men	-3302
▁surf	-3303
▁India	-3304
riff	-3305
▁economic	-3306
▁energy	-3307
▁Hill	-3308
▁costs	-3309
▁aim	-3310
▁mater	-3311
▁estim	-3312
nder	-3313
▁demonstr	-3314
▁Korea	-3315
▁gas	-3316
▁afternoon	-3317
airs	-3318
olution	-3319
▁speech	-3320
aed	-3321
▁bod	-3322
▁fra	-3323
▁jud	-3324
▁dangerous	-3325
▁sens	-3326
▁amount	-3327
▁lawyer	-3328
6.	-3329
▁Fore	-3330
▁weapons	-3331
▁eyes	-3332
▁Qu	-3333
cohol	-3334
▁drive	-3335
▁crowd	-3336
▁considered	-3337
▁border	-3338
▁bought	-3339
ih	-3340
▁Jones	-3341
uing	-3342
▁touch	-3343
▁base	-3344
oes	-3345
▁Mel	-3346
▁Other	-3347
▁attempt	-3348
rupt	-3349
▁council	-3350
▁Cle	-3351
▁$2	-3352
ares	-3353
▁unf	-3354
▁Center	-3355
▁performance	-3356
▁din	-3357
▁Sal	-3358
▁emot	-3359
▁Matt	-3360
▁nearby	-3361
▁emerged	-3362
▁bott	-3363
craft	-3364
▁ready	-3365
▁perfect	-3366
▁cash	-3367
ament	-3368
▁Law	-3369
▁evening	-3370
▁&	-3371
▁Tod	-3372
▁doctor	-3373
▁champ	-3374
▁Spain	-3375
▁ordered	-3376
iation	-3377
▁natur	-3378
atory	-3379
▁network	-3380
▁soldiers	-3381
▁effort	-3382
▁independ	-3383
orry	-3384
rief	-3385
▁ver	-3386
SA	-3387
▁ang	-3388
ils	-3389
rol	-3390
▁ship	-3391
▁animals	-3392
▁experts	-3393
aked	-3394
▁trust	-3395
▁engine	-3396
ading	-3397
▁Step	-3398
ipped	-3399
▁diagn	-3400
▁fast	-3401
▁jury	-3402
▁fle	-3403
▁calling	-3404
▁Don	-3405
▁identified	-3406
▁Robert	-3407
▁changes	-3408
▁television	-3409
▁Span	-3410
▁fit	-3411
▁economy	-3412
▁fashion	-3413
▁suspect	-3414
▁intro	-3415
▁coast	-3416
duced	-3417
ication	-3418
▁Wood	-3419
bre	-3420
rif	-3421
▁warning	-3422
00,000	-3423
▁twice	-3424
▁lik	-3425
▁vo	-3426
▁schools	-3427
▁avoid	-3428
▁unable	-3429
▁Van	-3430
▁adding	-3431
rian	-3432
hold	-3433
▁secret	-3434
iful	-3435
▁designed	-3436
▁citiz	-3437
ari	-3438
▁wouldn	-3439
aches	-3440
▁Sand	-3441
▁boys	-3442
▁middle	-3443
▁concerns	-3444
▁Green	-3445
▁Mary	-3446
add	-3447
▁opportunity	-3448
5,000	-3449
▁Author	-3450
▁efforts	-3451
▁charity	-3452
ites	-3453
▁Angeles	-3454
▁spread	-3455
▁Many	-3456
▁ep	-3457
▁issued	-3458
▁sport	-3459
gent	-3460
▁moving	-3461
▁send	-3462
rel	-3463
▁eventually	-3464
▁Tom	-3465
▁Italy	-3466
▁Andrew	-3467
▁Mexico	-3468
▁temper	-3469
liam	-3470
▁sym	-3471
▁penalty	-3472
▁award	-3473
▁achie	-3474
anda	-3475
gypt	-3476
ples	-3477
mit	-3478
celona	-3479
▁save	-3480
iling	-3481
▁rules	-3482
ears	-3483
▁conc	-3484
▁character	-3485
▁display	-3486
iles	-3487
ials	-3488
▁wild	-3489
well	-3490
That	-3491
▁example	-3492
▁animal	-3493
▁onto	-3494
▁suffering	-3495
▁arm	-3496
▁FA	-3497
▁Far	-3498
liament	-3499
icks	-3500
lor	-3501
uclear	-3502
▁largest	-3503
▁Bal	-3504
roud	-3505
▁wond	-3506
▁footage	-3507
▁fellow	-3508
▁airport	-3509
▁managed	-3510
gic	-3511
▁Paris	-3512
ighters	-3513
light	-3514
▁served	-3515
▁Victor	-3516
▁Sur	-3517
▁terms	-3518
▁Jos	-3519
▁Nor	-3520
pting	-3521
▁Barcelona	-3522
▁higher	-3523
-2	-3524
ki	-3525
▁Charl	-3526
owers	-3527
ounts	-3528
▁Egypt	-3529
▁global	-3530
▁jailed	-3531
elled	-3532
▁During	-3533
▁girlfriend	-3534
▁NHS	-3535
▁meant	-3536
▁request	-3537
▁loved	-3538
▁crisis	-3539
▁riv	-3540
iny	-3541
▁particularly	-3542
vest	-3543
isters	-3544
outhern	-3545
▁improve	-3546
▁removed	-3547
eal	-3548
▁Bill	-3549
▁sense	-3550
▁dism	-3551
▁Indian	-3552
▁experi	-3553
▁Ros	-3554
▁Lee	-3555
▁date	-3556
▁pulled	-3557
olute	-3558
▁alcohol	-3559
▁minute	-3560
▁Times	-3561
▁telling	-3562
▁favour	-3563
▁relig	-3564
▁sentenced	-3565
▁fourth	-3566
▁Cons	-3567
▁item	-3568
▁hopes	-3569
▁movie	-3570
▁chem	-3571
▁fine	-3572
▁rise	-3573
ago	-3574
▁screen	-3575
▁rate	-3576
rick	-3577
▁26	-3578
▁gets	-3579
▁straight	-3580
dney	-3581
▁Camp	-3582
▁exact	-3583
▁pur	-3584
ez	-3585
▁aircraft	-3586
▁attacked	-3587
▁Lord	-3588
▁Islamic	-3589
▁Thomas	-3590
▁£3	-3591
oned	-3592
▁talking	-3593
▁church	-3594
ilities	-3595
▁administration	-3596
▁fair	-3597
▁po	-3598
▁bra	-3599
▁seeing	-3600
▁newspaper	-3601
▁supporters	-3602
▁Gar	-3603
akers	-3604
▁ful	-3605
▁ice	-3606
▁increasing	-3607
▁vir	-3608
▁figure	-3609
za	-3610
erve	-3611
ounded	-3612
▁lose	-3613
▁suit	-3614
▁pers	-3615
▁28	-3616
▁flood	-3617
istry	-3618
▁Mill	-3619
▁jobs	-3620
▁protest	-3621
▁Ash	-3622
▁streets	-3623
▁fan	-3624
azine	-3625
▁Att	-3626
▁Sydney	-3627
anta	-3628
▁levels	-3629
gen	-3630
▁carrying	-3631
▁Harry	-3632
▁Ital	-3633
▁acce	-3634
ucky	-3635
▁eat	-3636
▁These	-3637
▁central	-3638
igg	-3639
▁completely	-3640
▁effect	-3641
▁true	-3642
▁raise	-3643
vent	-3644
▁ensure	-3645
▁written	-3646
▁throughout	-3647
ube	-3648
▁sched	-3649
▁includes	-3650
cial	-3651
▁Army	-3652
arden	-3653
▁heavy	-3654
▁hero	-3655
acked	-3656
As	-3657
▁Vir	-3658
▁opt	-3659
▁hy	-3660
▁Daniel	-3661
▁responsible	-3662
4.	-3663
▁struck	-3664
▁Arab	-3665
▁explos	-3666
▁wait	-3667
ression	-3668
▁Of	-3669
asts	-3670
▁reached	-3671
elligence	-3672
ruction	-3673
▁quarter	-3674
▁asking	-3675
jected	-3676
▁dropped	-3677
ersey	-3678
▁holding	-3679
isl	-3680
▁competition	-3681
▁typ	-3682
sych	-3683
istic	-3684
▁Justice	-3685
▁fired	-3686
▁People	-3687
▁nuclear	-3688
▁incred	-3689
▁Sar	-3690
▁associ	-3691
▁apolog	-3692
▁deaths	-3693
omen	-3694
▁repeated	-3695
▁Crown	-3696
▁waiting	-3697
inson	-3698
ustr	-3699
1.	-3700
▁accept	-3701
ampton	-3702
iate	-3703
▁fre	-3704
9.	-3705
▁mobile	-3706
▁Hall	-3707
▁severe	-3708
▁itself	-3709
▁Senate	-3710
▁Jon	-3711
▁numbers	-3712
▁La	-3713
nor	-3714
eed	-3715
ielder	-3716
?'	-3717
▁feeling	-3718
▁transfer	-3719
ropri	-3720
▁walking	-3721
itt	-3722
▁closed	-3723
▁27	-3724
ams	-3725
clus	-3726
udget	-3727
rap	-3728
▁doz	-3729
▁documents	-3730
▁mission	-3731
▁messages	-3732
▁Det	-3733
▁bodies	-3734
▁stab	-3735
ction	-3736
▁1.	-3737
woman	-3738
▁Judge	-3739
▁dream	-3740
azing	-3741
mates	-3742
▁education	-3743
▁estab	-3744
▁gang	-3745
aging	-3746
▁Mer	-3747
▁defeat	-3748
▁90	-3749
▁sea	-3750
▁Tal	-3751
▁blue	-3752
▁millions	-3753
bl	-3754
▁roll	-3755
▁suggested	-3756
▁teams	-3757
▁histor	-3758
▁slow	-3759
▁Old	-3760
ties	-3761
▁Atl	-3762
▁center	-3763
BI	-3764
▁owners	-3765
▁actions	-3766
▁concerned	-3767
asc	-3768
▁sale	-3769
fielder	-3770
▁motor	-3771
▁dark	-3772
▁Super	-3773
▁Sun	-3774
▁occas	-3775
▁alongside	-3776
iple	-3777
▁shared	-3778
▁normal	-3779
▁rain	-3780
▁placed	-3781
▁vac	-3782
going	-3783
▁swim	-3784
▁stars	-3785
▁document	-3786
▁aid	-3787
▁easy	-3788
▁approach	-3789
▁paper	-3790
▁successful	-3791
unch	-3792
▁inn	-3793
▁influ	-3794
▁Syrian	-3795
▁products	-3796
▁block	-3797
▁pull	-3798
ha	-3799
▁dogs	-3800
▁older	-3801
▁wel	-3802
▁First	-3803
hib	-3804
▁winner	-3805
bit	-3806
▁population	-3807
▁reporters	-3808
▁appearance	-3809
▁cerem	-3810
▁agre	-3811
arks	-3812
▁Soc	-3813
▁decades	-3814
bour	-3815
▁Union	-3816
▁captured	-3817
rim	-3818
▁planning	-3819
haps	-3820
▁planned	-3821
▁Both	-3822
▁apartment	-3823
▁pretty	-3824
▁myself	-3825
elly	-3826
ements	-3827
▁broken	-3828
▁Great	-3829
▁environment	-3830
▁helping	-3831
▁collect	-3832
▁original	-3833
▁suicide	-3834
▁cop	-3835
▁prior	-3836
stitute	-3837
useum	-3838
▁justice	-3839
▁Net	-3840
▁mount	-3841
▁bal	-3842
▁Earth	-3843
▁positive	-3844
▁worst	-3845
fl	-3846
win	-3847
▁Hum	-3848
▁Francis	-3849
What	-3850
angu	-3851
▁Inter	-3852
And	-3853
▁ow	-3854
keep	-3855
▁majority	-3856
▁benefits	-3857
month	-3858
▁Mag	-3859
▁double	-3860
aine	-3861
ildren	-3862
▁green	-3863
iest	-3864
esters	-3865
▁enfor	-3866
▁highest	-3867
▁Jim	-3868
▁mach	-3869
▁Sn	-3870
▁island	-3871
▁sports	-3872
▁sales	-3873
▁Under	-3874
▁massive	-3875
pping	-3876
▁Fam	-3877
▁talks	-3878
raine	-3879
▁becoming	-3880
▁compared	-3881
gree	-3882
▁reform	-3883
ector	-3884
▁Even	-3885
▁Italian	-3886
ications	-3887
▁lay	-3888
▁God	-3889
▁breat	-3890
▁song	-3891
▁league	-3892
▁cold	-3893
born	-3894
▁champion	-3895
▁shut	-3896
▁Bur	-3897
ero	-3898
▁spl	-3899
▁watching	-3900
▁collection	-3901
▁Service	-3902
resh	-3903
apped	-3904
▁features	-3905
▁computer	-3906
▁fix	-3907
sequ	-3908
▁claiming	-3909
▁Good	-3910
▁natural	-3911
▁contain	-3912
▁row	-3913
wide	-3914
▁whom	-3915
ological	-3916
▁dom	-3917
bridge	-3918
▁lower	-3919
▁Lew	-3920
▁Com	-3921
▁Watch	-3922
▁opin	-3923
▁male	-3924
▁opposition	-3925
uction	-3926
icles	-3927
jects	-3928
▁records	-3929
▁spir	-3930
▁regard	-3931
▁restaurant	-3932
▁Security	-3933
▁starting	-3934
▁tourn	-3935
aped	-3936
▁development	-3937
▁Den	-3938
iced	-3939
▁doll	-3940
▁General	-3941
▁70	-3942
FA	-3943
▁midfielder	-3944
▁places	-3945
▁airl	-3946
▁Steven	-3947
▁presidential	-3948
▁Party	-3949
▁Virgin	-3950
▁Met	-3951
▁insisted	-3952
ym	-3953
3.	-3954
▁Dis	-3955
▁veter	-3956
▁flag	-3957
ania	-3958
▁Ol	-3959
▁learn	-3960
Online	-3961
▁die	-3962
ervative	-3963
cks	-3964
▁illegal	-3965
▁defense	-3966
arian	-3967
andal	-3968
▁style	-3969
▁Barack	-3970
▁Murray	-3971
hab	-3972
▁Post	-3973
▁beautiful	-3974
▁maintain	-3975
▁custody	-3976
▁debate	-3977
▁counter	-3978
▁filed	-3979
▁Middle	-3980
NA	-3981
▁grad	-3982
udd	-3983
▁continues	-3984
▁und	-3985
▁FBI	-3986
▁freed	-3987
▁Mean	-3988
▁Although	-3989
mond	-3990
▁NA	-3991
ugg	-3992
▁Eb	-3993
▁Bre	-3994
▁certainly	-3995
mail	-3996
▁sem	-3997
▁ways	-3998
▁seemed	-3999
▁Argent	-4000
▁Gold	-4001
oz	-4002
▁department	-4003
▁word	-4004
ador	-4005
▁Spanish	-4006
uled	-4007
▁kit	-4008
▁beach	-4009
▁magazine	-4010
▁Commission	-4011
▁Grand	-4012
▁aware	-4013
▁Mos	-4014
eds	-4015
reng	-4016
▁Prof	-4017
▁ruled	-4018
iring	-4019
yond	-4020
▁stun	-4021
▁runs	-4022
▁losing	-4023
▁Holly	-4024
anging	-4025
▁chairman	-4026
▁Dar	-4027
▁reasons	-4028
▁teenager	-4029
castle	-4030
▁smart	-4031
▁strike	-4032
▁putting	-4033
▁Frank	-4034
▁Charles	-4035
▁prim	-4036
▁Nick	-4037
▁psych	-4038
▁Ga	-4039
▁neighbor	-4040
angers	-4041
▁Ever	-4042
▁Jul	-4043
▁rape	-4044
▁Rec	-4045
▁receive	-4046
▁names	-4047
▁progress	-4048
▁devast	-4049
▁“	-4050
▁Ronald	-4051
chen	-4052
▁Republicans	-4053
▁Gre	-4054
ER	-4055
val	-4056
▁dig	-4057
’,	-4058
▁adop	-4059
▁behavi	-4060
▁Tay	-4061
▁sometimes	-4062
▁ult	-4063
▁armed	-4064
▁Chief	-4065
ka	-4066
▁modern	-4067
▁necess	-4068
▁particip	-4069
anks	-4070
can	-4071
▁beg	-4072
▁Bush	-4073
▁device	-4074
▁Meanwhile	-4075
▁century	-4076
▁walked	-4077
▁facing	-4078
▁explained	-4079
▁committed	-4080
▁spotted	-4081
▁Today	-4082
▁Palace	-4083
hew	-4084
estic	-4085
urance	-4086
▁proud	-4087
▁arch	-4088
orrow	-4089
▁internet	-4090
▁suspended	-4091
oe	-4092
inho	-4093
▁spark	-4094
▁MailOnline	-4095
▁signs	-4096
▁version	-4097
▁Since	-4098
▁provided	-4099
▁EU	-4100
rage	-4101
▁causing	-4102
ville	-4103
▁Ve	-4104
▁minor	-4105
nel	-4106
pts	-4107
▁Wat	-4108
▁professional	-4109
▁covered	-4110
▁linked	-4111
0.	-4112
▁Ryan	-4113
IDEO	-4114
▁mental	-4115
▁respect	-4116
▁drop	-4117
eless	-4118
▁affected	-4119
using	-4120
▁glass	-4121
▁Win	-4122
ounger	-4123
▁village	-4124
rying	-4125
▁comfort	-4126
▁investigators	-4127
▁VIDEO	-4128
upp	-4129
▁origin	-4130
▁attended	-4131
antic	-4132
▁gay	-4133
▁Newcastle	-4134
▁Tim	-4135
▁Steve	-4136
uf	-4137
▁pregnant	-4138
▁piece	-4139
▁below	-4140
▁Christian	-4141
iser	-4142
▁clearly	-4143
igan	-4144
▁seat	-4145
▁patient	-4146
▁healthy	-4147
▁brief	-4148
▁Os	-4149
▁Three	-4150
▁convers	-4151
kins	-4152
▁Olympic	-4153
▁Georg	-4154
▁Association	-4155
▁promot	-4156
ourney	-4157
▁estimated	-4158
ae	-4159
▁views	-4160
▁Hot	-4161
▁mix	-4162
▁choice	-4163
▁Ari	-4164
▁corn	-4165
▁scientists	-4166
imum	-4167
▁champions	-4168
▁band	-4169
▁thinking	-4170
▁ability	-4171
▁Fin	-4172
onn	-4173
reland	-4174
oston	-4175
house	-4176
orial	-4177
▁Rad	-4178
▁researchers	-4179
▁Rober	-4180
▁items	-4181
▁Kar	-4182
▁birthday	-4183
utch	-4184
▁shel	-4185
aeda	-4186
▁standing	-4187
▁traffic	-4188
▁absolute	-4189
▁Speaking	-4190
2.	-4191
▁window	-4192
▁Then	-4193
▁Ukraine	-4194
▁tough	-4195
▁suspic	-4196
▁usually	-4197
▁specific	-4198
▁Ireland	-4199
▁expressed	-4200
▁effective	-4201
annel	-4202
▁college	-4203
▁ones	-4204
illing	-4205
▁knows	-4206
▁Kn	-4207
▁apparently	-4208
▁Mass	-4209
▁River	-4210
▁Bob	-4211
resp	-4212
▁Del	-4213
▁fly	-4214
▁uns	-4215
▁bath	-4216
ait	-4217
▁occurred	-4218
▁exerc	-4219
▁boat	-4220
▁giant	-4221
▁eating	-4222
▁pleaded	-4223
▁visited	-4224
atures	-4225
▁Hen	-4226
▁Church	-4227
ship	-4228
ula	-4229
▁streng	-4230
▁destroy	-4231
oking	-4232
cious	-4233
▁reality	-4234
▁citizens	-4235
▁banned	-4236
.,	-4237
▁Wal	-4238
▁advert	-4239
aret	-4240
▁legisl	-4241
met	-4242
▁80	-4243
▁Joe	-4244
imately	-4245
▁annual	-4246
cy	-4247
ani	-4248
▁Boston	-4249
▁budget	-4250
ked	-4251
▁handed	-4252
iqu	-4253
▁arms	-4254
▁Hel	-4255
▁ceremony	-4256
▁Gra	-4257
▁Sil	-4258
▁conduct	-4259
hered	-4260
11	-4261
erm	-4262
▁individual	-4263
iance	-4264
▁bi	-4265
▁Ty	-4266
isions	-4267
▁attempted	-4268
▁rescue	-4269
▁survey	-4270
▁prices	-4271
▁younger	-4272
▁intelligence	-4273
▁Jord	-4274
▁Ir	-4275
▁bird	-4276
board	-4277
▁actor	-4278
erved	-4279
▁Som	-4280
▁flat	-4281
do	-4282
▁sick	-4283
▁pool	-4284
▁Their	-4285
ume	-4286
▁fully	-4287
duce	-4288
▁Star	-4289
▁soft	-4290
▁practice	-4291
arily	-4292
?"	-4293
▁imag	-4294
▁Romney	-4295
▁hoping	-4296
▁wood	-4297
▁lic	-4298
▁recomm	-4299
▁langu	-4300
▁strate	-4301
zz	-4302
▁exist	-4303
▁clin	-4304
▁behaviour	-4305
▁Down	-4306
▁parties	-4307
▁cast	-4308
ointed	-4309
▁prem	-4310
ighter	-4311
▁ring	-4312
▁Most	-4313
▁increased	-4314
▁sitting	-4315
▁decade	-4316
▁Brad	-4317
▁bail	-4318
gar	-4319
▁beyond	-4320
▁missed	-4321
▁violent	-4322
▁harm	-4323
▁feed	-4324
▁tournament	-4325
▁Taylor	-4326
▁immigration	-4327
▁watched	-4328
▁pounds	-4329
▁Cost	-4330
▁operations	-4331
▁alive	-4332
mate	-4333
▁wonder	-4334
bury	-4335
▁lux	-4336
▁answer	-4337
▁initially	-4338
▁via	-4339
acts	-4340
▁flying	-4341
▁defin	-4342
ropriate	-4343
▁investigating	-4344
▁extremely	-4345
▁Bir	-4346
▁exch	-4347
ends	-4348
▁voters	-4349
▁obv	-4350
▁Holl	-4351
no	-4352
▁underst	-4353
▁sad	-4354
▁Kent	-4355
▁suspected	-4356
▁employees	-4357
▁university	-4358
phone	-4359
antly	-4360
▁Brook	-4361
▁Ebola	-4362
▁Kate	-4363
▁protesters	-4364
▁Colle	-4365
▁journey	-4366
▁Mac	-4367
▁scen	-4368
▁crimes	-4369
▁Cont	-4370
▁confident	-4371
▁traditional	-4372
40	-4373
▁Island	-4374
ilton	-4375
ads	-4376
▁developed	-4377
▁29	-4378
▁expert	-4379
▁hurt	-4380
▁politic	-4381
▁learned	-4382
▁resign	-4383
▁radio	-4384
▁Group	-4385
▁tests	-4386
▁Di	-4387
cean	-4388
owing	-4389
known	-4390
▁beginning	-4391
▁movement	-4392
▁wall	-4393
▁II	-4394
life	-4395
rect	-4396
aries	-4397
▁picked	-4398
▁Ram	-4399
▁Web	-4400
ala	-4401
▁throw	-4402
omatic	-4403
▁finding	-4404
▁boyfriend	-4405
▁defender	-4406
▁concern	-4407
apt	-4408
▁quality	-4409
ledge	-4410
▁responsibility	-4411
eder	-4412
▁text	-4413
▁fresh	-4414
cing	-4415
uses	-4416
▁spokeswoman	-4417
essed	-4418
▁dismiss	-4419
▁murd	-4420
▁amazing	-4421
▁Open	-4422
▁Wilson	-4423
▁purch	-4424
▁ic	-4425
ously	-4426
anny	-4427
entially	-4428
ifth	-4429
▁confl	-4430
▁remained	-4431
▁drinking	-4432
▁seconds	-4433
▁growth	-4434
▁physical	-4435
alys	-4436
▁Mike	-4437
▁pilot	-4438
▁Stud	-4439
▁tom	-4440
▁dram	-4441
oured	-4442
▁diagnosed	-4443
▁type	-4444
▁ath	-4445
▁neck	-4446
oked	-4447
▁proced	-4448
▁fraud	-4449
▁gives	-4450
▁shortly	-4451
▁society	-4452
▁negot	-4453
ovic	-4454
▁exactly	-4455
itting	-4456
▁counts	-4457
▁Democrats	-4458
▁loan	-4459
▁Put	-4460
▁blog	-4461
▁fort	-4462
ottenham	-4463
▁tweeted	-4464
▁value	-4465
gra	-4466
!'	-4467
▁doubt	-4468
aith	-4469
▁terrorist	-4470
▁Cast	-4471
owed	-4472
▁cook	-4473
▁Prosecut	-4474
ena	-4475
▁Home	-4476
▁Big	-4477
▁roy	-4478
▁Democratic	-4479
▁cities	-4480
▁scoring	-4481
▁regime	-4482
▁powerful	-4483
▁conflict	-4484
sey	-4485
▁separate	-4486
where	-4487
agues	-4488
▁Gaal	-4489
athan	-4490
izing	-4491
▁Moham	-4492
ewhere	-4493
▁ruling	-4494
▁appl	-4495
▁bottom	-4496
ban	-4497
▁sort	-4498
▁pitch	-4499
▁Wall	-4500
ennis	-4501
▁photographer	-4502
▁Tony	-4503
▁guard	-4504
▁farm	-4505
itz	-4506
▁speaking	-4507
▁Invest	-4508
▁required	-4509
aire	-4510
▁singer	-4511
acking	-4512
▁rid	-4513
gers	-4514
▁culture	-4515
▁finished	-4516
St	-4517
▁Profess	-4518
▁scr	-4519
ellow	-4520
▁agreement	-4521
ayers	-4522
▁threatened	-4523
icate	-4524
▁path	-4525
▁controversial	-4526
uals	-4527
▁worse	-4528
ighted	-4529
▁san	-4530
▁prosecutors	-4531
▁voice	-4532
▁ign	-4533
▁cab	-4534
aling	-4535
▁tack	-4536
▁seeking	-4537
▁2.	-4538
▁Chic	-4539
▁selling	-4540
ayne	-4541
▁haven	-4542
▁worker	-4543
▁Shar	-4544
▁divor	-4545
acing	-4546
▁catch	-4547
▁Tottenham	-4548
▁Coast	-4549
▁bedroom	-4550
▁meth	-4551
▁visitors	-4552
▁Jersey	-4553
ruit	-4554
▁Pet	-4555
▁favor	-4556
ius	-4557
▁Sl	-4558
▁iPh	-4559
▁Stephen	-4560
▁matches	-4561
Our	-4562
look	-4563
▁Jordan	-4564
▁Du	-4565
▁Mess	-4566
▁legs	-4567
ittee	-4568
▁Authorities	-4569
inals	-4570
▁complex	-4571
isation	-4572
▁Dun	-4573
▁meaning	-4574
▁circum	-4575
▁Wel	-4576
▁explain	-4577
▁Sports	-4578
ota	-4579
itude	-4580
▁belong	-4581
▁protests	-4582
▁Penn	-4583
ste	-4584
▁multiple	-4585
licop	-4586
50,000	-4587
rog	-4588
▁fal	-4589
▁apart	-4590
▁propos	-4591
ength	-4592
':	-4593
▁pup	-4594
anch	-4595
▁Pre	-4596
▁addition	-4597
▁helicop	-4598
▁Trans	-4599
▁estate	-4600
▁unlike	-4601
▁determined	-4602
▁Jer	-4603
unte	-4604
uests	-4605
gedy	-4606
▁domestic	-4607
rier	-4608
▁clothes	-4609
▁measures	-4610
▁eld	-4611
▁highly	-4612
▁gar	-4613
▁desper	-4614
ulated	-4615
▁northern	-4616
▁heav	-4617
▁faced	-4618
▁serving	-4619
▁District	-4620
ument	-4621
▁prepared	-4622
eing	-4623
enty	-4624
oles	-4625
▁sound	-4626
more	-4627
▁batt	-4628
▁programme	-4629
▁Korean	-4630
ively	-4631
▁From	-4632
▁serve	-4633
ocks	-4634
▁bom	-4635
▁actress	-4636
law	-4637
ella	-4638
▁daily	-4639
▁Guard	-4640
▁Haw	-4641
▁kidn	-4642
▁subject	-4643
arez	-4644
▁Carl	-4645
ga	-4646
▁Im	-4647
▁finish	-4648
▁fuel	-4649
▁activity	-4650
▁Kev	-4651
▁Liber	-4652
▁Qaeda	-4653
▁Victoria	-4654
▁dramatic	-4655
ela	-4656
▁pra	-4657
▁wealth	-4658
▁Pri	-4659
▁illness	-4660
▁Ann	-4661
▁Tory	-4662
▁Jew	-4663
▁Over	-4664
ushing	-4665
▁underw	-4666
stances	-4667
rible	-4668
▁Western	-4669
▁committee	-4670
▁uses	-4671
▁Israeli	-4672
bur	-4673
▁commission	-4674
▁Fire	-4675
▁thanks	-4676
ef	-4677
ids	-4678
▁upon	-4679
▁sites	-4680
▁scandal	-4681
run	-4682
ections	-4683
▁stands	-4684
burg	-4685
▁Ell	-4686
▁Sus	-4687
▁Press	-4688
▁cuts	-4689
▁Bank	-4690
▁Kat	-4691
▁Nic	-4692
▁east	-4693
gus	-4694
60	-4695
▁purs	-4696
8.	-4697
iana	-4698
outs	-4699
▁vehicles	-4700
▁guy	-4701
▁enforcement	-4702
▁analy	-4703
▁amid	-4704
▁offers	-4705
▁Carolina	-4706
▁hun	-4707
asted	-4708
▁videos	-4709
▁Hollywood	-4710
▁district	-4711
▁require	-4712
▁Year	-4713
▁Chicago	-4714
▁lines	-4715
eman	-4716
▁Tor	-4717
▁various	-4718
▁expensive	-4719
ictions	-4720
ican	-4721
▁Sarah	-4722
ware	-4723
▁note	-4724
▁2007	-4725
▁clubs	-4726
▁artist	-4727
▁Young	-4728
▁Anth	-4729
ihad	-4730
rison	-4731
encing	-4732
▁southern	-4733
itation	-4734
▁35	-4735
▁west	-4736
▁Committee	-4737
lement	-4738
▁applic	-4739
▁recorded	-4740
▁£4	-4741
▁youth	-4742
▁scheduled	-4743
▁books	-4744
▁fest	-4745
▁keeping	-4746
▁paying	-4747
▁sides	-4748
▁Championship	-4749
▁garden	-4750
▁simple	-4751
▁defence	-4752
▁location	-4753
upreme	-4754
oma	-4755
▁spect	-4756
▁fears	-4757
ecause	-4758
▁boost	-4759
anced	-4760
▁commer	-4761
▁College	-4762
iban	-4763
▁stories	-4764
▁nature	-4765
▁rule	-4766
▁Club	-4767
▁recovery	-4768
▁warm	-4769
▁Kevin	-4770
▁credit	-4771
▁assaul	-4772
▁Foot	-4773
▁Sky	-4774
▁surface	-4775
▁Georgia	-4776
lyn	-4777
▁Road	-4778
▁Family	-4779
ipe	-4780
▁Mour	-4781
▁remove	-4782
▁recover	-4783
ols	-4784
▁seriously	-4785
dden	-4786
▁truck	-4787
▁difference	-4788
▁diet	-4789
▁Jess	-4790
▁Games	-4791
▁perhaps	-4792
▁Lewis	-4793
▁(1	-4794
▁advice	-4795
▁Luc	-4796
▁Jose	-4797
▁confidence	-4798
▁Andy	-4799
orted	-4800
rig	-4801
▁Fox	-4802
iment	-4803
▁Ac	-4804
▁partners	-4805
▁Eric	-4806
▁repeatedly	-4807
▁sources	-4808
▁equip	-4809
▁chemical	-4810
▁Kh	-4811
▁batter	-4812
▁material	-4813
ront	-4814
▁feature	-4815
▁toward	-4816
▁coff	-4817
lers	-4818
▁bot	-4819
▁responded	-4820
▁impress	-4821
ologist	-4822
▁Mem	-4823
▁Bor	-4824
▁fish	-4825
▁Earlier	-4826
▁celebrate	-4827
olic	-4828
▁2012,	-4829
encies	-4830
itely	-4831
anded	-4832
▁rap	-4833
▁Jeff	-4834
▁rates	-4835
▁Anthony	-4836
▁kne	-4837
mother	-4838
▁royal	-4839
▁Die	-4840
▁rub	-4841
▁Airport	-4842
west	-4843
▁relative	-4844
OP	-4845
▁organization	-4846
▁Michel	-4847
▁mans	-4848
▁article	-4849
wich	-4850
▁sudden	-4851
Americ	-4852
▁unus	-4853
▁escape	-4854
▁Canada	-4855
▁32	-4856
▁aband	-4857
▁shocked	-4858
▁2012.	-4859
billion	-4860
▁Fergus	-4861
▁achieve	-4862
▁delay	-4863
▁candidate	-4864
▁Ter	-4865
▁Taliban	-4866
▁trouble	-4867
onym	-4868
▁benefit	-4869
ulate	-4870
▁false	-4871
▁unit	-4872
▁stuff	-4873
▁religious	-4874
▁army	-4875
▁prove	-4876
▁plant	-4877
▁cool	-4878
ources	-4879
▁fifth	-4880
icking	-4881
▁MPs	-4882
▁insurance	-4883
emen	-4884
▁drivers	-4885
▁critical	-4886
▁tow	-4887
▁Tre	-4888
▁shopping	-4889
iner	-4890
▁Virginia	-4891
ification	-4892
iar	-4893
At	-4894
aled	-4895
olen	-4896
▁McD	-4897
gas	-4898
▁equipment	-4899
▁prime	-4900
▁absolutely	-4901
▁trade	-4902
iano	-4903
▁Dev	-4904
▁Professor	-4905
apping	-4906
▁produced	-4907
▁Boy	-4908
▁upset	-4909
▁Cambridge	-4910
▁breast	-4911
▁independent	-4912
▁setting	-4913
keeper	-4914
▁funeral	-4915
▁agent	-4916
▁stood	-4917
▁earth	-4918
▁Maria	-4919
▁Ox	-4920
▁leadership	-4921
▁Niger	-4922
▁inquir	-4923
know	-4924
▁iPhone	-4925
bon	-4926
▁sche	-4927
▁volunte	-4928
▁stret	-4929
ancing	-4930
▁Internet	-4931
▁Nations	-4932
▁Investig	-4933
▁photographs	-4934
▁Jenn	-4935
▁perm	-4936
ova	-4937
▁user	-4938
▁Cur	-4939
▁hasn	-4940
pir	-4941
prof	-4942
▁Bu	-4943
iband	-4944
▁31	-4945
owned	-4946
▁push	-4947
▁Ferguson	-4948
▁failure	-4949
▁tree	-4950
bing	-4951
▁lawsuit	-4952
▁nurs	-4953
▁struct	-4954
bro	-4955
dd	-4956
inated	-4957
▁Central	-4958
▁pen	-4959
▁Foreign	-4960
▁declined	-4961
▁Squ	-4962
▁attract	-4963
▁shots	-4964
▁Every	-4965
▁connection	-4966
▁Simon	-4967
▁winter	-4968
▁steps	-4969
CA	-4970
aching	-4971
▁Oh	-4972
rist	-4973
▁Southampton	-4974
▁wish	-4975
▁wheel	-4976
▁Scottish	-4977
▁stress	-4978
▁dinner	-4979
▁obtain	-4980
▁accounts	-4981
▁grab	-4982
kin	-4983
▁Miliband	-4984
▁Str	-4985
▁45	-4986
▁contest	-4987
ufact	-4988
▁constit	-4989
▁Follow	-4990
▁Zeal	-4991
▁Attorney	-4992
▁Found	-4993
cri	-4994
▁colleagues	-4995
lig	-4996
▁struggling	-4997
▁language	-4998
▁Sav	-4999
▁Adam	-5000
▁emotional	-5001
▁surprise	-5002
▁Palest	-5003
va	-5004
incess	-5005
▁dipl	-5006
IA	-5007
▁angry	-5008
▁CEO	-5009
For	-5010
▁Rooney	-5011
oves	-5012
▁trend	-5013
▁afford	-5014
▁declared	-5015
▁tells	-5016
▁targeted	-5017
ulance	-5018
▁Mourinho	-5019
▁Out	-5020
▁guests	-5021
▁der	-5022
▁hur	-5023
▁secretary	-5024
mingham	-5025
▁mum	-5026
▁returning	-5027
▁Holland	-5028
▁#	-5029
▁fled	-5030
▁Beck	-5031
▁Four	-5032
▁bow	-5033
▁moments	-5034
▁controll	-5035
isher	-5036
▁nice	-5037
▁$3	-5038
lets	-5039
ien	-5040
▁worried	-5041
alition	-5042
▁status	-5043
▁clash	-5044
▁luxury	-5045
ores	-5046
alling	-5047
Tube	-5048
aughters	-5049
▁Kelly	-5050
▁measure	-5051
▁Ford	-5052
rial	-5053
▁2011,	-5054
▁signing	-5055
vis	-5056
▁urged	-5057
▁lawyers	-5058
icken	-5059
▁electric	-5060
ua	-5061
▁passenger	-5062
oted	-5063
▁offering	-5064
BS	-5065
▁Those	-5066
▁unp	-5067
▁Turkey	-5068
▁entered	-5069
▁Mont	-5070
rec	-5071
▁ble	-5072
▁session	-5073
▁directly	-5074
▁Here	-5075
▁sympt	-5076
No	-5077
▁Birmingham	-5078
▁ir	-5079
▁inspired	-5080
▁acknow	-5081
▁suffer	-5082
▁wake	-5083
▁favourite	-5084
3-	-5085
agram	-5086
ayer	-5087
▁swe	-5088
▁YouTube	-5089
phic	-5090
ensions	-5091
▁audience	-5092
▁Stadium	-5093
▁overse	-5094
▁supposed	-5095
▁Pac	-5096
▁related	-5097
▁unique	-5098
▁Lind	-5099
▁allowing	-5100
▁Comp	-5101
omes	-5102
▁withd	-5103
▁eth	-5104
▁aren	-5105
▁Zealand	-5106
umn	-5107
▁production	-5108
itals	-5109
▁Mir	-5110
ining	-5111
▁Reg	-5112
cow	-5113
▁secure	-5114
▁frustr	-5115
▁qualif	-5116
▁sand	-5117
▁Kenned	-5118
▁Jam	-5119
▁militants	-5120
▁Abd	-5121
▁criticism	-5122
▁bright	-5123
▁Prot	-5124
makers	-5125
▁flights	-5126
▁completed	-5127
▁settle	-5128
ashes	-5129
▁impl	-5130
▁debut	-5131
▁politics	-5132
▁Everton	-5133
▁duty	-5134
▁reduce	-5135
antage	-5136
oner	-5137
icit	-5138
▁writing	-5139
▁falling	-5140
▁mention	-5141
▁questioned	-5142
▁agree	-5143
▁Villa	-5144
▁horse	-5145
iley	-5146
▁3.	-5147
▁Beach	-5148
▁Rog	-5149
aming	-5150
▁Morgan	-5151
▁assistant	-5152
▁corner	-5153
break	-5154
▁Putin	-5155
▁length	-5156
▁conclud	-5157
▁willing	-5158
rific	-5159
emb	-5160
▁transport	-5161
itan	-5162
▁feels	-5163
▁comed	-5164
▁Dou	-5165
▁tragedy	-5166
▁cas	-5167
ulations	-5168
▁confirm	-5169
▁Walk	-5170
▁devices	-5171
▁content	-5172
So	-5173
ching	-5174
▁sending	-5175
▁proceed	-5176
▁thank	-5177
coming	-5178
▁log	-5179
▁kitchen	-5180
▁Long	-5181
▁Kennedy	-5182
dom	-5183
azi	-5184
▁adults	-5185
long	-5186
▁Lat	-5187
▁beauty	-5188
▁Before	-5189
orter	-5190
▁Ba	-5191
▁Ronaldo	-5192
ables	-5193
venue	-5194
utions	-5195
▁gain	-5196
▁laugh	-5197
uche	-5198
▁except	-5199
▁stolen	-5200
OR	-5201
Every	-5202
otic	-5203
▁Hug	-5204
▁Supreme	-5205
▁sky	-5206
▁Corn	-5207
▁temperatures	-5208
▁incredible	-5209
▁grew	-5210
atever	-5211
▁background	-5212
idel	-5213
▁Roberts	-5214
elle	-5215
▁involve	-5216
▁buildings	-5217
▁Bow	-5218
▁receiving	-5219
apers	-5220
▁oppon	-5221
foot	-5222
All	-5223
rant	-5224
▁enjoyed	-5225
▁introduced	-5226
▁ton	-5227
Ch	-5228
▁.	-5229
▁condem	-5230
▁manufact	-5231
▁involving	-5232
tr	-5233
▁Bol	-5234
▁daughters	-5235
mes	-5236
▁Card	-5237
PR	-5238
ryst	-5239
▁limit	-5240
▁Ag	-5241
▁Conn	-5242
▁fant	-5243
IC	-5244
▁flu	-5245
▁register	-5246
▁heat	-5247
▁cameras	-5248
▁migr	-5249
uated	-5250
bourne	-5251
▁decide	-5252
▁Tour	-5253
aza	-5254
▁Ah	-5255
▁Gary	-5256
zona	-5257
ulf	-5258
▁Well	-5259
▁machine	-5260
▁faith	-5261
▁auction	-5262
▁Burn	-5263
▁plot	-5264
▁knife	-5265
▁greater	-5266
▁Sa	-5267
▁virus	-5268
▁2011.	-5269
vention	-5270
▁suggests	-5271
▁affect	-5272
▁email	-5273
▁cy	-5274
▁frequ	-5275
▁Mount	-5276
▁owned	-5277
▁hat	-5278
ba	-5279
▁Mun	-5280
rep	-5281
▁crack	-5282
ctions	-5283
erous	-5284
asters	-5285
▁additional	-5286
▁cart	-5287
▁regularly	-5288
▁turning	-5289
▁Japanese	-5290
▁suspects	-5291
▁Es	-5292
▁weapon	-5293
zer	-5294
▁DNA	-5295
oses	-5296
abeth	-5297
▁Yorks	-5298
▁burn	-5299
▁surge	-5300
▁Direct	-5301
▁dad	-5302
▁standards	-5303
▁tiny	-5304
▁Agency	-5305
▁relatives	-5306
▁Hamilton	-5307
▁reaction	-5308
▁wore	-5309
▁innoc	-5310
▁threats	-5311
▁Children	-5312
star	-5313
▁Alan	-5314
▁individuals	-5315
▁circumstances	-5316
▁anc	-5317
▁retired	-5318
▁leaves	-5319
▁elections	-5320
▁2,	-5321
▁Ray	-5322
▁Inc	-5323
▁protection	-5324
uchess	-5325
iversary	-5326
▁sust	-5327
▁dressed	-5328
▁bear	-5329
▁Lo	-5330
▁Davis	-5331
andez	-5332
▁beaten	-5333
▁necessary	-5334
▁194	-5335
▁Sing	-5336
▁Sol	-5337
fire	-5338
▁ess	-5339
eared	-5340
▁Costa	-5341
▁fighters	-5342
ipl	-5343
▁wounded	-5344
▁agents	-5345
▁quiet	-5346
▁Medical	-5347
aint	-5348
▁keen	-5349
▁2006	-5350
EA	-5351
▁bringing	-5352
▁Er	-5353
ickets	-5354
▁deadly	-5355
▁Eliz	-5356
▁crashed	-5357
▁Loc	-5358
▁drove	-5359
▁Force	-5360
▁truth	-5361
▁survived	-5362
▁Diego	-5363
aken	-5364
▁unusual	-5365
▁Instead	-5366
▁dating	-5367
▁freedom	-5368
▁gather	-5369
ulner	-5370
quar	-5371
▁1,000	-5372
rell	-5373
arrass	-5374
tery	-5375
▁aggress	-5376
inn	-5377
▁Cath	-5378
▁princ	-5379
▁Arizona	-5380
▁rival	-5381
▁Argentina	-5382
▁4.	-5383
4-	-5384
▁Belg	-5385
ker	-5386
▁holds	-5387
▁Hart	-5388
▁Navy	-5389
▁mouth	-5390
▁Palestin	-5391
▁GP	-5392
▁Yorkshire	-5393
kes	-5394
▁Cub	-5395
▁ham	-5396
ruption	-5397
▁Matthew	-5398
▁noted	-5399
▁limited	-5400
FL	-5401
iami	-5402
▁ride	-5403
▁failing	-5404
▁symptoms	-5405
▁colour	-5406
▁neighbour	-5407
▁rank	-5408
war	-5409
▁Osc	-5410
ette	-5411
onic	-5412
▁saved	-5413
orado	-5414
Pe	-5415
▁purp	-5416
▁Ster	-5417
▁brut	-5418
▁Northern	-5419
▁Av	-5420
aze	-5421
▁spoken	-5422
gl	-5423
▁pushed	-5424
▁destroyed	-5425
▁businesses	-5426
▁Miller	-5427
▁ded	-5428
isa	-5429
▁Us	-5430
▁originally	-5431
▁effects	-5432
la	-5433
half	-5434
▁resul	-5435
agers	-5436
▁influence	-5437
▁species	-5438
ademy	-5439
▁tight	-5440
afe	-5441
▁detect	-5442
▁active	-5443
▁affair	-5444
▁soldier	-5445
▁debt	-5446
▁exercise	-5447
boy	-5448
▁celebrates	-5449
▁epis	-5450
▁negoti	-5451
▁brothers	-5452
▁disappear	-5453
▁ABC	-5454
▁split	-5455
▁activities	-5456
iat	-5457
▁damaged	-5458
▁income	-5459
▁anniversary	-5460
▁allows	-5461
▁Saud	-5462
▁systems	-5463
▁commercial	-5464
▁babies	-5465
▁2000	-5466
▁Lake	-5467
▁neighborhood	-5468
▁GOP	-5469
▁maybe	-5470
▁sight	-5471
▁Miami	-5472
▁shape	-5473
▁entertain	-5474
urse	-5475
▁models	-5476
▁providing	-5477
▁Hay	-5478
tered	-5479
▁chest	-5480
bel	-5481
▁memory	-5482
▁depart	-5483
▁surrounding	-5484
uana	-5485
▁domin	-5486
▁Institute	-5487
illy	-5488
lected	-5489
▁presence	-5490
anna	-5491
▁Dub	-5492
▁slight	-5493
▁Ma	-5494
▁designer	-5495
▁retail	-5496
▁Dutch	-5497
▁extrem	-5498
▁elder	-5499
▁Duchess	-5500
▁tribute	-5501
▁understood	-5502
▁gat	-5503
ittle	-5504
▁FI	-5505
ader	-5506
▁Cal	-5507
appy	-5508
▁Suarez	-5509
▁Human	-5510
elli	-5511
▁Cru	-5512
▁sole	-5513
▁acqu	-5514
▁monit	-5515
▁jet	-5516
▁complaint	-5517
▁Instagram	-5518
idden	-5519
▁houses	-5520
▁increasingly	-5521
▁stores	-5522
ocking	-5523
▁policies	-5524
▁Gal	-5525
▁collaps	-5526
▁larger	-5527
▁causes	-5528
▁produce	-5529
ios	-5530
▁semi	-5531
▁plays	-5532
▁likes	-5533
road	-5534
▁shirt	-5535
ycle	-5536
person	-5537
▁0	-5538
▁management	-5539
▁Centre	-5540
▁featured	-5541
▁reading	-5542
▁2010,	-5543
▁stone	-5544
▁filmed	-5545
ijuana	-5546
osure	-5547
ucted	-5548
▁interested	-5549
▁egg	-5550
▁mic	-5551
▁Cook	-5552
hour	-5553
▁beating	-5554
▁Art	-5555
▁bigger	-5556
▁sons	-5557
illance	-5558
▁experienced	-5559
▁primary	-5560
▁remind	-5561
▁express	-5562
▁Ministry	-5563
▁strength	-5564
▁unve	-5565
▁sear	-5566
etts	-5567
▁funding	-5568
▁argued	-5569
▁forg	-5570
▁subst	-5571
▁rushed	-5572
▁Hotel	-5573
▁announcement	-5574
▁contacted	-5575
leg	-5576
era	-5577
▁consult	-5578
▁advantage	-5579
ivity	-5580
worth	-5581
▁vess	-5582
▁Colorado	-5583
80	-5584
urd	-5585
▁facility	-5586
▁mort	-5587
▁disaster	-5588
▁helicopter	-5589
▁Olympics	-5590
etic	-5591
▁Abb	-5592
▁Messi	-5593
▁planet	-5594
▁Hong	-5595
▁suppl	-5596
▁urg	-5597
▁@	-5598
▁Iv	-5599
▁analys	-5600
▁option	-5601
▁vulner	-5602
These	-5603
▁altern	-5604
▁Six	-5605
▁phones	-5606
▁plat	-5607
works	-5608
▁Ali	-5609
sters	-5610
▁Elizabeth	-5611
▁pieces	-5612
een	-5613
▁Ant	-5614
▁Portug	-5615
▁Leices	-5616
ocol	-5617
▁Hor	-5618
father	-5619
▁exhib	-5620
usted	-5621
opp	-5622
▁adult	-5623
utation	-5624
▁accepted	-5625
▁verd	-5626
▁proved	-5627
▁stadium	-5628
▁golf	-5629
▁struggled	-5630
▁McG	-5631
iter	-5632
▁fatal	-5633
▁mir	-5634
▁boot	-5635
▁Hod	-5636
▁Bern	-5637
wise	-5638
▁governor	-5639
▁busy	-5640
▁Research	-5641
▁struggle	-5642
▁som	-5643
▁Coll	-5644
▁creating	-5645
▁Anderson	-5646
▁sparked	-5647
▁attempts	-5648
▁cup	-5649
assy	-5650
town	-5651
▁skills	-5652
▁happens	-5653
▁easily	-5654
vey	-5655
istol	-5656
▁guns	-5657
▁lands	-5658
▁parliament	-5659
▁sought	-5660
▁recovered	-5661
▁hal	-5662
▁dozens	-5663
▁plastic	-5664
▁Sterling	-5665
▁climate	-5666
ovel	-5667
▁housing	-5668
char	-5669
▁visiting	-5670
▁lucky	-5671
▁determine	-5672
▁Parliament	-5673
▁Iraqi	-5674
ano	-5675
ospitals	-5676
▁Tw	-5677
▁Trust	-5678
▁tast	-5679
▁Bridge	-5680
▁punish	-5681
▁rail	-5682
▁heads	-5683
▁deploy	-5684
▁remark	-5685
part	-5686
▁travelling	-5687
hatt	-5688
▁killer	-5689
▁knowledge	-5690
▁Ok	-5691
▁witnesses	-5692
▁Ten	-5693
▁bin	-5694
▁blame	-5695
▁acting	-5696
▁Ra	-5697
▁ongoing	-5698
▁mayor	-5699
▁Cole	-5700
▁myster	-5701
▁located	-5702
icient	-5703
ography	-5704
▁Evans	-5705
▁unlikely	-5706
▁bars	-5707
▁36	-5708
▁Atlanta	-5709
▁smoke	-5710
▁scheme	-5711
mad	-5712
▁identify	-5713
▁changing	-5714
▁establish	-5715
▁panel	-5716
reck	-5717
▁breaking	-5718
▁Kong	-5719
▁professor	-5720
▁legend	-5721
asket	-5722
▁editor	-5723
▁exclus	-5724
▁Ohio	-5725
▁instit	-5726
osis	-5727
▁athlet	-5728
▁identity	-5729
weight	-5730
▁potentially	-5731
▁500	-5732
▁deputy	-5733
▁bare	-5734
▁bond	-5735
abor	-5736
pet	-5737
▁meat	-5738
▁pled	-5739
▁lying	-5740
▁initial	-5741
izz	-5742
▁tum	-5743
▁Fab	-5744
▁Michelle	-5745
▁occasion	-5746
▁Dam	-5747
rah	-5748
▁coc	-5749
aying	-5750
state	-5751
mosp	-5752
achus	-5753
▁Henry	-5754
▁rejected	-5755
▁scream	-5756
▁learning	-5757
▁rising	-5758
ni	-5759
▁legislation	-5760
▁Swed	-5761
▁195	-5762
▁Top	-5763
▁Milan	-5764
▁kil	-5765
▁sexually	-5766
▁Saudi	-5767
inet	-5768
▁Staff	-5769
▁fallen	-5770
standing	-5771
enders	-5772
▁perman	-5773
uate	-5774
▁Pan	-5775
▁encoun	-5776
▁prosecutor	-5777
▁Harris	-5778
▁refuge	-5779
▁intended	-5780
▁Only	-5781
▁decisions	-5782
▁science	-5783
▁£6	-5784
ias	-5785
▁letters	-5786
▁river	-5787
▁Doct	-5788
fford	-5789
aks	-5790
▁generation	-5791
▁inquest	-5792
▁tort	-5793
achusetts	-5794
70	-5795
▁weak	-5796
▁2010.	-5797
▁Der	-5798
▁»	-5799
▁Defense	-5800
▁conversation	-5801
ifer	-5802
▁eastern	-5803
How	-5804
▁Hamp	-5805
pper	-5806
▁inquiry	-5807
▁prosecution	-5808
▁embarrass	-5809
▁correct	-5810
▁object	-5811
▁Feder	-5812
▁happening	-5813
▁closer	-5814
▁Bus	-5815
hi	-5816
▁Why	-5817
rip	-5818
▁filled	-5819
▁wine	-5820
▁tears	-5821
aden	-5822
immer	-5823
▁Snow	-5824
▁union	-5825
▁possibility	-5826
▁gathered	-5827
▁mistake	-5828
▁Foundation	-5829
▁300	-5830
▁Women	-5831
▁tempor	-5832
eme	-5833
eph	-5834
▁communities	-5835
▁pal	-5836
▁vast	-5837
▁spirit	-5838
▁historic	-5839
bell	-5840
▁react	-5841
sts	-5842
▁cells	-5843
▁delivered	-5844
▁evac	-5845
isf	-5846
▁proposed	-5847
ipping	-5848
ronic	-5849
▁equal	-5850
▁6-	-5851
▁chances	-5852
▁nations	-5853
olk	-5854
▁performed	-5855
▁rum	-5856
▁findings	-5857
▁arriv	-5858
▁route	-5859
People	-5860
umped	-5861
▁Football	-5862
▁weigh	-5863
▁Wayne	-5864
▁Sher	-5865
▁2005	-5866
▁opinion	-5867
▁ambulance	-5868
away	-5869
▁Exper	-5870
▁robber	-5871
roat	-5872
▁teachers	-5873
▁Town	-5874
ossible	-5875
▁murdered	-5876
▁Lanc	-5877
▁relax	-5878
▁remote	-5879
▁standard	-5880
borne	-5881
▁ticket	-5882
▁5.	-5883
▁Massachusetts	-5884
▁earned	-5885
▁Commun	-5886
obody	-5887
▁journalist	-5888
To	-5889
▁surprised	-5890
ortunately	-5891
minute	-5892
▁transform	-5893
▁province	-5894
▁ut	-5895
▁choose	-5896
▁Marc	-5897
▁extr	-5898
▁complaints	-5899
▁upd	-5900
▁conducted	-5901
▁fought	-5902
▁flo	-5903
▁landing	-5904
▁Ts	-5905
▁Ian	-5906
employ	-5907
▁NBC	-5908
▁notice	-5909
hattan	-5910
▁noticed	-5911
rystal	-5912
▁Mayor	-5913
▁seats	-5914
▁tourists	-5915
▁Mand	-5916
▁democr	-5917
▁alb	-5918
▁behavior	-5919
▁Hun	-5920
▁dollars	-5921
sec	-5922
▁assess	-5923
▁definitely	-5924
▁developing	-5925
▁focused	-5926
▁incidents	-5927
▁method	-5928
▁stayed	-5929
usion	-5930
▁publicly	-5931
▁Manhattan	-5932
▁rooms	-5933
▁options	-5934
▁Cab	-5935
▁testing	-5936
ugby	-5937
eren	-5938
▁inches	-5939
centre	-5940
▁funds	-5941
▁degree	-5942
▁burg	-5943
▁vice	-5944
▁employee	-5945
▁smaller	-5946
▁Lady	-5947
▁Sea	-5948
▁rough	-5949
▁prosp	-5950
▁Airl	-5951
▁Also	-5952
▁Cross	-5953
▁nar	-5954
▁immediate	-5955
▁possession	-5956
▁tomorrow	-5957
▁promised	-5958
▁bull	-5959
ko	-5960
istor	-5961
▁(£	-5962
atal	-5963
▁sorry	-5964
oom	-5965
▁Rock	-5966
▁taxp	-5967
▁Moscow	-5968
ita	-5969
▁Jac	-5970
▁lights	-5971
▁exchange	-5972
▁passing	-5973
eline	-5974
7-	-5975
related	-5976
▁Yet	-5977
▁presented	-5978
▁Cra	-5979
▁Phill	-5980
▁resort	-5981
▁marijuana	-5982
▁roof	-5983
▁acts	-5984
▁blow	-5985
▁films	-5986
▁compens	-5987
▁musc	-5988
▁investment	-5989
▁thrown	-5990
ounced	-5991
▁affil	-5992
▁joint	-5993
ench	-5994
▁Fort	-5995
▁Scient	-5996
▁magn	-5997
▁blamed	-5998
▁Once	-5999
▁lunch	-6000
▁1990	-6001
▁candidates	-6002
▁wal	-6003
▁stick	-6004
▁viewers	-6005
▁Melbourne	-6006
▁journalists	-6007
▁mostly	-6008
▁parent	-6009
estyle	-6010
▁Among	-6011
▁acknowled	-6012
▁bathroom	-6013
▁Patrick	-6014
▁airline	-6015
▁painting	-6016
▁prefer	-6017
imp	-6018
▁Francisco	-6019
▁broadcast	-6020
▁landed	-6021
▁goalkeeper	-6022
ijing	-6023
▁stuck	-6024
ordon	-6025
▁mountain	-6026
▁Barb	-6027
agh	-6028
▁grandmother	-6029
▁widely	-6030
▁staying	-6031
▁Princess	-6032
99	-6033
▁helps	-6034
▁Abu	-6035
▁rebels	-6036
10	-6037
▁client	-6038
▁challenges	-6039
▁CC	-6040
owell	-6041
▁tall	-6042
▁Alexander	-6043
▁Wenger	-6044
▁Las	-6045
▁Ross	-6046
▁ven	-6047
▁dismissed	-6048
▁Ut	-6049
▁tragic	-6050
▁considering	-6051
▁complained	-6052
▁hole	-6053
▁passion	-6054
▁tim	-6055
strong	-6056
▁Brian	-6057
▁clothing	-6058
▁Swan	-6059
▁basis	-6060
iated	-6061
▁heading	-6062
astern	-6063
▁offences	-6064
▁corpor	-6065
▁Lau	-6066
▁surveillance	-6067
▁nurse	-6068
▁task	-6069
▁NFL	-6070
▁2013,	-6071
▁Sant	-6072
▁Up	-6073
▁stabbed	-6074
▁remaining	-6075
▁retire	-6076
▁2013.	-6077
▁divorce	-6078
▁coverage	-6079
iform	-6080
▁Hern	-6081
▁Channel	-6082
▁max	-6083
▁insists	-6084
▁overall	-6085
▁slam	-6086
ext	-6087
▁Read	-6088
ingly	-6089
▁drag	-6090
▁greatest	-6091
▁veteran	-6092
IP	-6093
▁celebrity	-6094
▁20-	-6095
assador	-6096
▁edge	-6097
▁Oscar	-6098
▁metal	-6099
week	-6100
opher	-6101
▁Work	-6102
▁wins	-6103
▁stunning	-6104
▁command	-6105
▁buying	-6106
▁Square	-6107
▁Sheriff	-6108
▁humans	-6109
▁chain	-6110
▁Beijing	-6111
▁verdict	-6112
▁Terry	-6113
▁routine	-6114
▁tie	-6115
▁impressive	-6116
TO	-6117
arre	-6118
▁square	-6119
▁hoped	-6120
agement	-6121
▁driven	-6122
▁Charlie	-6123
▁Leicester	-6124
reek	-6125
uster	-6126
atto	-6127
▁gym	-6128
▁sup	-6129
▁Asia	-6130
▁atmosp	-6131
▁write	-6132
enses	-6133
▁Bayern	-6134
▁Queens	-6135
▁trained	-6136
▁possibly	-6137
▁headed	-6138
▁conservative	-6139
▁buried	-6140
▁consequ	-6141
▁advoc	-6142
▁FIFA	-6143
▁politicians	-6144
▁$4	-6145
▁dance	-6146
▁Ver	-6147
▁cards	-6148
▁consist	-6149
▁largely	-6150
▁prec	-6151
point	-6152
▁organiz	-6153
▁calm	-6154
▁shar	-6155
▁Jay	-6156
▁resources	-6157
cont	-6158
▁Lam	-6159
▁Lar	-6160
oli	-6161
▁Men	-6162
▁Hou	-6163
stone	-6164
▁replaced	-6165
ece	-6166
▁numerous	-6167
eland	-6168
▁trees	-6169
▁tele	-6170
▁museum	-6171
▁investigate	-6172
▁yellow	-6173
esc	-6174
▁Fern	-6175
▁Let	-6176
▁porn	-6177
▁Valley	-6178
▁firef	-6179
just	-6180
▁stock	-6181
▁Show	-6182
▁Irish	-6183
▁household	-6184
ishes	-6185
▁outf	-6186
▁Duke	-6187
uts	-6188
American	-6189
▁profile	-6190
▁Bet	-6191
▁operating	-6192
▁vulnerable	-6193
▁qual	-6194
▁Ly	-6195
▁admits	-6196
▁Libya	-6197
▁Mars	-6198
acks	-6199
▁heavily	-6200
▁parking	-6201
ellor	-6202
ogue	-6203
2-	-6204
irts	-6205
▁kiss	-6206
▁sav	-6207
ateg	-6208
▁spring	-6209
▁waters	-6210
burgh	-6211
▁adds	-6212
ansas	-6213
▁Rights	-6214
▁grown	-6215
inct	-6216
▁Ill	-6217
▁swimming	-6218
▁shoes	-6219
▁territ	-6220
rified	-6221
▁Andre	-6222
▁teenage	-6223
▁Stan	-6224
▁supported	-6225
▁weren	-6226
▁welcome	-6227
ounted	-6228
abled	-6229
▁personnel	-6230
▁Max	-6231
underland	-6232
▁Test	-6233
iamond	-6234
▁Luis	-6235
▁abandoned	-6236
▁nor	-6237
▁Rel	-6238
▁18-	-6239
iable	-6240
▁occup	-6241
▁construction	-6242
▁coin	-6243
▁rivals	-6244
▁Josh	-6245
▁critics	-6246
hy	-6247
▁anonym	-6248
▁Buck	-6249
esty	-6250
▁Care	-6251
▁Mexican	-6252
▁Bru	-6253
earing	-6254
▁Gun	-6255
▁prin	-6256
▁section	-6257
▁Rodgers	-6258
stein	-6259
ylv	-6260
Af	-6261
▁restr	-6262
▁agencies	-6263
▁properly	-6264
IN	-6265
▁master	-6266
▁obviously	-6267
ES	-6268
stron	-6269
▁climb	-6270
▁7.	-6271
▁Malays	-6272
▁disappeared	-6273
▁accomp	-6274
▁friendly	-6275
▁distrib	-6276
▁activists	-6277
har	-6278
▁capture	-6279
▁disorder	-6280
▁distance	-6281
▁jack	-6282
▁Vegas	-6283
▁seized	-6284
style	-6285
oster	-6286
▁scenes	-6287
▁Iranian	-6288
▁empt	-6289
▁supply	-6290
▁knee	-6291
▁Allen	-6292
▁privacy	-6293
▁infection	-6294
▁sees	-6295
rence	-6296
▁Sunderland	-6297
ashing	-6298
▁Public	-6299
▁trail	-6300
emble	-6301
mph	-6302
ulous	-6303
ira	-6304
inent	-6305
▁whatever	-6306
ache	-6307
agon	-6308
▁belief	-6309
▁doors	-6310
▁Like	-6311
▁excited	-6312
agger	-6313
▁Mother	-6314
▁Joseph	-6315
▁detail	-6316
istics	-6317
▁backed	-6318
▁combat	-6319
market	-6320
▁2009,	-6321
okes	-6322
igned	-6323
▁guys	-6324
▁yourself	-6325
▁chose	-6326
▁Bul	-6327
▁lots	-6328
▁awarded	-6329
▁tend	-6330
▁accus	-6331
▁pension	-6332
▁tested	-6333
▁platform	-6334
aser	-6335
▁rom	-6336
▁revel	-6337
Al	-6338
▁hall	-6339
▁pupils	-6340
ogan	-6341
▁voted	-6342
▁UN	-6343
▁authority	-6344
▁negative	-6345
ila	-6346
▁About	-6347
ylvania	-6348
rome	-6349
▁Canad	-6350
arch	-6351
▁desperate	-6352
▁album	-6353
ria	-6354
asy	-6355
▁terrorism	-6356
fast	-6357
▁intent	-6358
▁6.	-6359
▁1980	-6360
elfare	-6361
▁elderly	-6362
▁tennis	-6363
▁Indones	-6364
▁Hernandez	-6365
sewhere	-6366
▁pointed	-6367
▁stom	-6368
rees	-6369
yr	-6370
▁rich	-6371
icip	-6372
▁reveals	-6373
▁Greg	-6374
▁raising	-6375
▁Museum	-6376
▁criticised	-6377
▁Jason	-6378
▁map	-6379
▁traum	-6380
eree	-6381
▁reputation	-6382
▁tun	-6383
▁exposed	-6384
▁studies	-6385
▁Mu	-6386
▁motiv	-6387
▁uniform	-6388
▁arrive	-6389
▁founder	-6390
▁talked	-6391
▁scale	-6392
▁plenty	-6393
▁roads	-6394
▁Turk	-6395
▁Penns	-6396
▁none	-6397
whel	-6398
RA	-6399
▁thinks	-6400
▁bags	-6401
▁Somal	-6402
▁honor	-6403
▁Kir	-6404
▁Nev	-6405
▁nose	-6406
▁civilians	-6407
▁collapsed	-6408
▁controversy	-6409
▁bottle	-6410
▁targets	-6411
▁tea	-6412
▁remarks	-6413
▁strategy	-6414
acle	-6415
▁eur	-6416
▁CCTV	-6417
▁Jonathan	-6418
tha	-6419
hens	-6420
▁granted	-6421
▁banks	-6422
▁worldwide	-6423
▁Officials	-6424
▁Hull	-6425
▁Airlines	-6426
▁memorial	-6427
▁Khan	-6428
▁hospitals	-6429
ervation	-6430
▁Mod	-6431
▁Graham	-6432
emic	-6433
▁prisoners	-6434
▁anger	-6435
lines	-6436
▁lady	-6437
BA	-6438
▁virt	-6439
wall	-6440
▁zone	-6441
▁coffee	-6442
▁listed	-6443
▁Roman	-6444
▁Kl	-6445
▁isol	-6446
▁reduced	-6447
▁flew	-6448
adow	-6449
▁Team	-6450
▁Second	-6451
▁silver	-6452
allas	-6453
▁USA	-6454
▁tact	-6455
▁Pennsylvania	-6456
▁starts	-6457
▁tradition	-6458
***	-6459
▁10-	-6460
▁2004	-6461
▁Jane	-6462
▁bridge	-6463
lah	-6464
▁Jr	-6465
▁Fred	-6466
▁novel	-6467
▁easier	-6468
▁followers	-6469
▁25,	-6470
awn	-6471
▁Mit	-6472
▁grounds	-6473
▁Journal	-6474
arant	-6475
▁insist	-6476
▁Bell	-6477
▁Ashley	-6478
▁micro	-6479
place	-6480
▁Oxford	-6481
▁referred	-6482
▁everybody	-6483
▁realised	-6484
▁medic	-6485
▁stomach	-6486
▁canc	-6487
▁19,	-6488
▁hate	-6489
▁locked	-6490
▁liter	-6491
▁appearances	-6492
▁terrorists	-6493
▁Wild	-6494
▁Colomb	-6495
ointment	-6496
▁lie	-6497
▁du	-6498
▁threatening	-6499
▁Cooper	-6500
▁argument	-6501
▁toile	-6502
▁Fil	-6503
▁Friend	-6504
▁rat	-6505
▁Rick	-6506
▁Gordon	-6507
▁arrival	-6508
▁22,	-6509
▁jur	-6510
▁subs	-6511
erves	-6512
▁therap	-6513
▁nom	-6514
▁bills	-6515
▁Who	-6516
▁Crime	-6517
▁20,	-6518
umber	-6519
oard	-6520
▁comfortable	-6521
▁stepped	-6522
▁Federal	-6523
▁Yemen	-6524
hand	-6525
▁associated	-6526
▁Life	-6527
▁survive	-6528
▁gall	-6529
▁Houston	-6530
▁thoughts	-6531
▁string	-6532
▁15-	-6533
▁sets	-6534
▁offensive	-6535
▁conviction	-6536
▁Jamie	-6537
▁notes	-6538
fall	-6539
▁coalition	-6540
▁feared	-6541
▁approved	-6542
▁Christopher	-6543
▁approached	-6544
centr	-6545
▁established	-6546
▁impossible	-6547
▁£7	-6548
▁symb	-6549
▁direction	-6550
▁abroad	-6551
▁supporting	-6552
▁Edward	-6553
▁courts	-6554
▁Philipp	-6555
▁drawn	-6556
quarters	-6557
▁strikes	-6558
▁tickets	-6559
▁pin	-6560
ancellor	-6561
▁medal	-6562
iot	-6563
▁Laur	-6564
▁pregnancy	-6565
▁asp	-6566
osen	-6567
8-	-6568
▁Mat	-6569
ishop	-6570
iev	-6571
▁12-	-6572
▁Fal	-6573
▁discipl	-6574
▁programs	-6575
▁Trafford	-6576
▁tackle	-6577
▁escaped	-6578
▁tied	-6579
ta	-6580
obs	-6581
▁Space	-6582
▁atmosphere	-6583
▁Arm	-6584
▁interests	-6585
▁Anton	-6586
▁troub	-6587
▁Celt	-6588
▁Sever	-6589
▁balance	-6590
▁Best	-6591
brit	-6592
▁Craig	-6593
afi	-6594
▁Nas	-6595
eding	-6596
▁dozen	-6597
▁deeply	-6598
▁discover	-6599
One	-6600
▁Danny	-6601
amin	-6602
▁Sk	-6603
▁discovery	-6604
25	-6605
ouri	-6606
SP	-6607
▁somebody	-6608
▁wonderful	-6609
care	-6610
acity	-6611
uez	-6612
▁cock	-6613
▁Organ	-6614
▁scre	-6615
▁scores	-6616
▁Stand	-6617
▁surviv	-6618
▁Cop	-6619
▁explosion	-6620
ibr	-6621
▁winds	-6622
▁leads	-6623
▁Walker	-6624
▁2015	-6625
▁highl	-6626
▁Tele	-6627
▁Hughes	-6628
▁24,	-6629
▁Gall	-6630
▁risks	-6631
▁continuing	-6632
▁Moore	-6633
▁sweet	-6634
dy	-6635
▁threw	-6636
▁Muslims	-6637
ordinary	-6638
rum	-6639
AR	-6640
▁prompted	-6641
▁statements	-6642
ords	-6643
igaret	-6644
▁truly	-6645
called	-6646
▁overt	-6647
▁ment	-6648
irates	-6649
▁waste	-6650
gun	-6651
▁moon	-6652
▁23,	-6653
IV	-6654
▁customer	-6655
▁vital	-6656
elson	-6657
rapped	-6658
▁unless	-6659
▁fitness	-6660
brities	-6661
▁cocaine	-6662
illiant	-6663
▁attacking	-6664
▁liber	-6665
izes	-6666
▁outbreak	-6667
▁Mot	-6668
▁Back	-6669
▁mothers	-6670
▁concluded	-6671
▁tor	-6672
▁replace	-6673
▁Swansea	-6674
▁Leon	-6675
▁Watson	-6676
▁Ko	-6677
▁Little	-6678
▁discrim	-6679
▁joining	-6680
▁Spec	-6681
▁unknown	-6682
▁couples	-6683
▁replied	-6684
roc	-6685
▁Wind	-6686
▁resol	-6687
▁procedure	-6688
▁internal	-6689
▁Its	-6690
▁vacc	-6691
▁sanctions	-6692
▁wid	-6693
▁posed	-6694
▁mer	-6695
▁2009.	-6696
ED	-6697
▁Canadian	-6698
▁Leeds	-6699
uties	-6700
▁jumped	-6701
▁episode	-6702
45	-6703
▁fake	-6704
▁concentr	-6705
▁cleared	-6706
▁unclear	-6707
▁21,	-6708
▁hitting	-6709
▁Phot	-6710
▁18,	-6711
rag	-6712
▁Michigan	-6713
AT	-6714
▁Love	-6715
▁ancient	-6716
▁elected	-6717
azz	-6718
▁8.	-6719
▁stro	-6720
▁encourage	-6721
▁preparing	-6722
▁1970	-6723
▁lifestyle	-6724
▁cutting	-6725
▁closely	-6726
▁appropriate	-6727
▁plea	-6728
▁relief	-6729
imal	-6730
▁30,	-6731
aska	-6732
▁worry	-6733
▁wound	-6734
▁jew	-6735
An	-6736
▁Our	-6737
▁terrible	-6738
▁provides	-6739
▁forget	-6740
▁Jen	-6741
▁Bang	-6742
▁150	-6743
▁blind	-6744
apse	-6745
▁fro	-6746
degree	-6747
▁follows	-6748
ports	-6749
▁testified	-6750
▁invited	-6751
ancer	-6752
▁3,	-6753
piracy	-6754
▁Still	-6755
▁harass	-6756
▁suspicion	-6757
▁Gib	-6758
rich	-6759
▁solution	-6760
200	-6761
▁outrage	-6762
▁Sport	-6763
▁enjoying	-6764
▁deter	-6765
fe	-6766
crib	-6767
▁knocked	-6768
▁documentary	-6769
▁erup	-6770
▁Christie	-6771
▁pose	-6772
▁deliber	-6773
agan	-6774
▁consumers	-6775
▁Jennifer	-6776
▁embr	-6777
▁Arch	-6778
▁dry	-6779
▁ca	-6780
▁Asked	-6781
▁hidden	-6782
▁permission	-6783
▁talent	-6784
▁basket	-6785
▁Hear	-6786
▁Officers	-6787
▁satisf	-6788
rard	-6789
▁badly	-6790
▁satell	-6791
▁congress	-6792
▁24-	-6793
▁craz	-6794
water	-6795
ros	-6796
▁searching	-6797
erted	-6798
▁prepare	-6799
▁Sum	-6800
▁laid	-6801
▁Santa	-6802
▁shocking	-6803
▁devastated	-6804
▁26,	-6805
▁hadn	-6806
▁Rangers	-6807
▁knowing	-6808
▁plus	-6809
▁defendant	-6810
chell	-6811
▁investigated	-6812
▁rocket	-6813
▁Director	-6814
▁lung	-6815
▁Stoke	-6816
iration	-6817
▁jihad	-6818
▁immigrants	-6819
▁spons	-6820
▁height	-6821
▁Essex	-6822
▁moves	-6823
▁suburb	-6824
arents	-6825
ifying	-6826
orders	-6827
▁aimed	-6828
▁Clegg	-6829
▁wave	-6830
oral	-6831
▁Following	-6832
▁resist	-6833
▁overwhel	-6834
zen	-6835
orious	-6836
▁suddenly	-6837
▁10.	-6838
▁Brother	-6839
▁software	-6840
▁recalled	-6841
oyd	-6842
aug	-6843
▁drunk	-6844
▁Gov	-6845
▁unemploy	-6846
▁Hillary	-6847
▁dub	-6848
▁Gh	-6849
▁Gulf	-6850
bec	-6851
final	-6852
▁Rose	-6853
▁slightly	-6854
▁raid	-6855
▁marks	-6856
ompson	-6857
▁pock	-6858
olds	-6859
heast	-6860
▁inte	-6861
▁Brazilian	-6862
▁spell	-6863
▁welfare	-6864
▁Sub	-6865
▁abused	-6866
▁proposal	-6867
▁Catholic	-6868
With	-6869
athon	-6870
▁Prosecutors	-6871
▁arr	-6872
▁basic	-6873
▁Campbell	-6874
bu	-6875
adel	-6876
itors	-6877
▁surrounded	-6878
lan	-6879
▁empty	-6880
▁native	-6881
▁Land	-6882
▁metres	-6883
▁minimum	-6884
girl	-6885
ecutive	-6886
essions	-6887
▁adopt	-6888
▁newly	-6889
▁Marg	-6890
ema	-6891
▁Pope	-6892
▁Aston	-6893
....	-6894
▁Radio	-6895
▁2008,	-6896
▁rescued	-6897
▁Nich	-6898
atherine	-6899
▁detained	-6900
▁opinions	-6901
▁meal	-6902
▁tur	-6903
▁Supp	-6904
▁pushing	-6905
▁dying	-6906
▁Kerry	-6907
▁Jewish	-6908
▁engaged	-6909
▁imagine	-6910
▁sett	-6911
▁Gerrard	-6912
gment	-6913
▁denies	-6914
!"	-6915
▁compensation	-6916
▁27,	-6917
▁becomes	-6918
ato	-6919
▁kicked	-6920
▁explains	-6921
▁wreck	-6922
▁lies	-6923
▁unn	-6924
▁dealing	-6925
▁involvement	-6926
▁turns	-6927
▁Each	-6928
ortion	-6929
▁tatto	-6930
real	-6931
▁Jessica	-6932
▁Rio	-6933
▁rapid	-6934
▁pattern	-6935
izarre	-6936
▁Hampshire	-6937
▁finger	-6938
orous	-6939
▁lift	-6940
▁reflect	-6941
nic	-6942
acre	-6943
▁cooper	-6944
▁Crist	-6945
▁£5	-6946
▁Rodrig	-6947
▁instruct	-6948
▁twe	-6949
▁cann	-6950
▁28,	-6951
▁ped	-6952
▁Brom	-6953
▁behalf	-6954
▁arriving	-6955
▁bench	-6956
▁begins	-6957
▁honest	-6958
▁shouldn	-6959
mers	-6960
▁Glob	-6961
▁Gaza	-6962
▁diss	-6963
raid	-6964
▁Turkish	-6965
▁touc	-6966
▁fantastic	-6967
▁bound	-6968
▁CIA	-6969
▁compete	-6970
itary	-6971
▁£8	-6972
▁Saf	-6973
odes	-6974
15	-6975
▁defending	-6976
mann	-6977
▁Rh	-6978
▁Bry	-6979
▁drinks	-6980
▁Fel	-6981
▁ultimately	-6982
two	-6983
ocolate	-6984
▁racing	-6985
▁Ukrain	-6986
▁rein	-6987
▁discl	-6988
▁solar	-6989
▁Mah	-6990
▁Pakistani	-6991
▁understanding	-6992
▁hide	-6993
▁western	-6994
▁horrific	-6995
▁Get	-6996
▁raped	-6997
▁testim	-6998
▁Lev	-6999
▁anx	-7000
▁Greece	-7001
maker	-7002
nam	-7003
▁Because	-7004
▁enth	-7005
▁rose	-7006
▁scared	-7007
MA	-7008
▁bike	-7009
▁Bristol	-7010
▁Oper	-7011
▁excess	-7012
don	-7013
▁presenter	-7014
▁revolution	-7015
▁disappearance	-7016
▁Abbott	-7017
ima	-7018
▁categ	-7019
▁Philip	-7020
Is	-7021
▁Water	-7022
▁radical	-7023
▁assistance	-7024
▁Doctors	-7025
▁alternative	-7026
▁Wright	-7027
▁subsequ	-7028
icked	-7029
oyal	-7030
▁1-0	-7031
▁Oklah	-7032
▁33	-7033
▁Vill	-7034
▁describes	-7035
ye	-7036
▁sleeping	-7037
▁overseas	-7038
▁Sud	-7039
▁normally	-7040
▁teeth	-7041
▁Thompson	-7042
▁reporter	-7043
▁accepting	-7044
stitution	-7045
▁clim	-7046
▁orders	-7047
free	-7048
▁Hold	-7049
king	-7050
▁Rub	-7051
▁racist	-7052
▁digital	-7053
▁facilities	-7054
▁Hodg	-7055
▁walls	-7056
acters	-7057
▁apprec	-7058
▁narrow	-7059
▁Nigeria	-7060
▁shoulder	-7061
▁2-1	-7062
▁ing	-7063
▁torn	-7064
▁smile	-7065
isers	-7066
mouth	-7067
AF	-7068
▁Time	-7069
▁unveiled	-7070
▁Serv	-7071
Le	-7072
▁Week	-7073
▁Ball	-7074
▁Palestinian	-7075
▁Zimmer	-7076
▁judges	-7077
▁dispute	-7078
▁code	-7079
▁labor	-7080
▁Celtic	-7081
▁posting	-7082
▁chat	-7083
▁sixth	-7084
▁guarant	-7085
▁innocent	-7086
▁drama	-7087
▁Perry	-7088
▁travelled	-7089
▁properties	-7090
▁Dallas	-7091
▁LA	-7092
▁Dave	-7093
▁ocean	-7094
ito	-7095
class	-7096
▁Munich	-7097
▁chosen	-7098
▁obtained	-7099
pan	-7100
▁brilliant	-7101
▁recommend	-7102
▁smoking	-7103
annah	-7104
▁cha	-7105
istrates	-7106
tic	-7107
▁30-	-7108
itarian	-7109
▁Pass	-7110
▁Insp	-7111
▁Qat	-7112
▁breath	-7113
▁ministers	-7114
▁Jimmy	-7115
▁Turn	-7116
▁Li	-7117
▁Girl	-7118
▁Conservative	-7119
olas	-7120
▁Fair	-7121
▁Stew	-7122
▁Asian	-7123
▁conce	-7124
areness	-7125
ON	-7126
▁16-	-7127
▁iconic	-7128
▁Lyn	-7129
▁theft	-7130
▁Oklahoma	-7131
▁votes	-7132
▁astron	-7133
▁switch	-7134
▁decor	-7135
▁gap	-7136
aron	-7137
azon	-7138
▁17-	-7139
▁Social	-7140
▁relatively	-7141
▁conspiracy	-7142
▁Rev	-7143
▁6,	-7144
▁pink	-7145
ranged	-7146
▁favorite	-7147
▁veget	-7148
▁waves	-7149
▁formed	-7150
cedes	-7151
pread	-7152
▁powers	-7153
▁Sorry	-7154
bar	-7155
▁maximum	-7156
▁matters	-7157
gio	-7158
▁Commons	-7159
▁attempting	-7160
▁Robin	-7161
▁Academy	-7162
▁Clark	-7163
▁festival	-7164
CC	-7165
▁Dur	-7166
otherap	-7167
aco	-7168
ardo	-7169
▁vision	-7170
▁17,	-7171
▁characters	-7172
▁vent	-7173
▁dire	-7174
▁crucial	-7175
▁celebrities	-7176
▁entirely	-7177
▁depression	-7178
cia	-7179
▁pit	-7180
▁adopted	-7181
▁75	-7182
▁trapped	-7183
▁bombing	-7184
▁Jean	-7185
uls	-7186
▁Peters	-7187
idespread	-7188
ooth	-7189
▁shares	-7190
ridge	-7191
▁Woods	-7192
▁stream	-7193
▁purpose	-7194
▁2003	-7195
exp	-7196
how	-7197
▁web	-7198
▁planes	-7199
▁9.	-7200
▁Any	-7201
▁Ker	-7202
▁analysis	-7203
▁Five	-7204
ivery	-7205
icious	-7206
▁defended	-7207
ando	-7208
▁Neil	-7209
▁describe	-7210
▁wounds	-7211
▁Blair	-7212
▁burgl	-7213
▁drew	-7214
▁blast	-7215
▁specialist	-7216
▁25-	-7217
▁dedicated	-7218
ledon	-7219
iders	-7220
▁fruit	-7221
▁Missouri	-7222
▁Society	-7223
iece	-7224
ls	-7225
▁Clar	-7226
▁windows	-7227
▁milk	-7228
▁poison	-7229
▁permanent	-7230
▁Justin	-7231
▁Bab	-7232
achel	-7233
▁Jeremy	-7234
▁2-0	-7235
▁informed	-7236
▁Broad	-7237
usive	-7238
▁od	-7239
▁earn	-7240
▁totally	-7241
obby	-7242
▁Hy	-7243
▁intense	-7244
imbledon	-7245
▁battery	-7246
die	-7247
iverse	-7248
▁stated	-7249
▁Pers	-7250
▁classic	-7251
umed	-7252
LL	-7253
▁2016	-7254
▁400	-7255
▁withdraw	-7256
▁writes	-7257
▁Bas	-7258
▁firms	-7259
▁tonight	-7260
ingham	-7261
▁demanded	-7262
▁29,	-7263
▁championship	-7264
▁ideas	-7265
▁listen	-7266
inez	-7267
utional	-7268
▁connected	-7269
▁corruption	-7270
oln	-7271
▁Id	-7272
▁Pot	-7273
▁ties	-7274
▁pig	-7275
▁shops	-7276
▁fee	-7277
▁childhood	-7278
tra	-7279
overs	-7280
▁reporting	-7281
▁Laura	-7282
▁payments	-7283
▁Nig	-7284
▁structure	-7285
▁Cardiff	-7286
▁entit	-7287
▁solely	-7288
▁Hard	-7289
ora	-7290
▁mal	-7291
overty	-7292
▁Bruce	-7293
itable	-7294
ologists	-7295
▁cricket	-7296
▁commitment	-7297
eping	-7298
▁taxes	-7299
▁Bull	-7300
▁Are	-7301
▁interesting	-7302
▁Mohammed	-7303
▁incredibly	-7304
▁rally	-7305
irty	-7306
shot	-7307
ifts	-7308
▁naked	-7309
Some	-7310
onna	-7311
echan	-7312
▁marked	-7313
orses	-7314
aya	-7315
amm	-7316
▁opportunities	-7317
▁Osborne	-7318
▁offence	-7319
▁anywhere	-7320
9-	-7321
▁gift	-7322
burn	-7323
▁apply	-7324
equ	-7325
put	-7326
▁QPR	-7327
▁Pen	-7328
▁Wimbledon	-7329
▁consequences	-7330
▁execution	-7331
▁prize	-7332
▁Yesterday	-7333
▁joke	-7334
▁robbery	-7335
▁tear	-7336
▁Edin	-7337
▁capable	-7338
▁Fe	-7339
▁sharing	-7340
▁attending	-7341
ompl	-7342
▁scan	-7343
idelines	-7344
▁See	-7345
▁quit	-7346
▁birds	-7347
▁extended	-7348
1-	-7349
minster	-7350
Un	-7351
▁rural	-7352
▁Marsh	-7353
▁fewer	-7354
▁arrests	-7355
▁mansion	-7356
▁Mitchell	-7357
▁chef	-7358
▁mos	-7359
▁Experts	-7360
▁($	-7361
▁Atlantic	-7362
▁caps	-7363
▁ge	-7364
▁shift	-7365
phia	-7366
▁tank	-7367
▁promote	-7368
,000.	-7369
▁Gab	-7370
olitan	-7371
▁Amazon	-7372
▁Though	-7373
▁Major	-7374
deal	-7375
▁Bra	-7376
▁promise	-7377
▁overnight	-7378
▁implement	-7379
▁Deb	-7380
▁afraid	-7381
▁extraordinary	-7382
tlet	-7383
▁yards	-7384
▁archit	-7385
▁handle	-7386
▁cheap	-7387
▁bes	-7388
▁tries	-7389
▁demanding	-7390
▁brutal	-7391
eller	-7392
▁aggressive	-7393
▁reward	-7394
esh	-7395
▁temperature	-7396
▁Services	-7397
▁NATO	-7398
▁mile	-7399
oren	-7400
▁Local	-7401
▁Stu	-7402
▁Scientists	-7403
▁Ow	-7404
▁Glas	-7405
▁joy	-7406
▁era	-7407
▁2008.	-7408
▁testimony	-7409
▁puts	-7410
▁teenagers	-7411
▁beer	-7412
▁Hunt	-7413
▁posts	-7414
▁Brend	-7415
▁Has	-7416
▁sugar	-7417
inced	-7418
gow	-7419
rett	-7420
▁Carter	-7421
▁Stewart	-7422
▁Russell	-7423
▁Ocean	-7424
aval	-7425
▁Connect	-7426
▁Ukrainian	-7427
▁scar	-7428
▁Robinson	-7429
adelphia	-7430
▁apology	-7431
▁cous	-7432
OW	-7433
wick	-7434
▁advance	-7435
▁intention	-7436
▁projects	-7437
▁otherwise	-7438
▁ru	-7439
▁2,000	-7440
▁earning	-7441
EN	-7442
▁reun	-7443
▁Jud	-7444
incoln	-7445
▁Columb	-7446
▁taught	-7447
▁Chancellor	-7448
▁je	-7449
▁disappointed	-7450
▁Admin	-7451
▁compar	-7452
▁misc	-7453
▁Hodgson	-7454
▁Investigators	-7455
chair	-7456
▁sisters	-7457
▁devastating	-7458
▁55	-7459
▁fees	-7460
▁bullet	-7461
▁Food	-7462
▁Egyptian	-7463
athy	-7464
▁fighter	-7465
▁Ll	-7466
▁Deputy	-7467
inois	-7468
▁profession	-7469
▁reaching	-7470
▁king	-7471
▁flowers	-7472
▁enthus	-7473
▁Rodriguez	-7474
▁file	-7475
mitted	-7476
▁strict	-7477
▁widespread	-7478
▁ju	-7479
▁Brand	-7480
▁Transport	-7481
orough	-7482
inating	-7483
▁Several	-7484
rene	-7485
▁hits	-7486
▁Philadelphia	-7487
▁entr	-7488
▁Zimmerman	-7489
▁bombs	-7490
▁Luke	-7491
▁hired	-7492
▁31,	-7493
▁Fre	-7494
▁Ferr	-7495
▁poses	-7496
▁Marine	-7497
▁punishment	-7498
▁pleased	-7499
▁Swit	-7500
▁fill	-7501
▁expand	-7502
mo	-7503
▁officially	-7504
ducing	-7505
pers	-7506
▁celebrated	-7507
▁Martinez	-7508
▁Whe	-7509
▁sits	-7510
▁casual	-7511
▁Disney	-7512
▁Book	-7513
▁Ale	-7514
▁16,	-7515
▁Pacific	-7516
▁Hom	-7517
▁spokesperson	-7518
▁Whit	-7519
▁Lane	-7520
▁rent	-7521
▁affiliate	-7522
▁Pear	-7523
▁Rem	-7524
▁19-	-7525
attered	-7526
▁demands	-7527
esus	-7528
▁contained	-7529
▁Lisa	-7530
▁Southern	-7531
▁interviewed	-7532
▁gained	-7533
▁Lt	-7534
▁priority	-7535
▁awareness	-7536
▁Nad	-7537
▁tex	-7538
rifying	-7539
dr	-7540
verse	-7541
▁collected	-7542
▁McDonald	-7543
▁loves	-7544
▁earthqu	-7545
▁clinic	-7546
▁ski	-7547
▁locations	-7548
▁performing	-7549
▁explo	-7550
▁pleas	-7551
▁featuring	-7552
▁ending	-7553
▁Ib	-7554
▁ward	-7555
DA	-7556
▁lock	-7557
▁variety	-7558
▁accompl	-7559
▁Alab	-7560
▁familiar	-7561
otte	-7562
▁patrol	-7563
▁Brooklyn	-7564
▁rugby	-7565
▁campus	-7566
▁restaurants	-7567
▁conclus	-7568
▁dubbed	-7569
▁sector	-7570
▁Emma	-7571
duction	-7572
▁superv	-7573
▁4,	-7574
lete	-7575
▁Cos	-7576
uine	-7577
▁bat	-7578
▁emails	-7579
▁193	-7580
low	-7581
ideo	-7582
▁killings	-7583
breaking	-7584
▁crying	-7585
▁Sean	-7586
▁rif	-7587
roid	-7588
▁Lincoln	-7589
▁Educ	-7590
▁Gill	-7591
▁indic	-7592
▁Power	-7593
▁label	-7594
▁administr	-7595
▁Roll	-7596
▁writer	-7597
▁hang	-7598
▁checks	-7599
▁referee	-7600
▁improved	-7601
icut	-7602
▁displ	-7603
▁fault	-7604
▁advent	-7605
▁Researchers	-7606
▁Common	-7607
▁Belgium	-7608
col	-7609
▁spr	-7610
▁links	-7611
▁petition	-7612
▁suc	-7613
ommod	-7614
▁clients	-7615
dale	-7616
inch	-7617
hetic	-7618
▁NASA	-7619
ervatives	-7620
▁Stone	-7621
inate	-7622
90	-7623
▁headquarters	-7624
pass	-7625
ighton	-7626
▁guide	-7627
▁la	-7628
iden	-7629
phed	-7630
loaded	-7631
▁delighted	-7632
▁nut	-7633
▁deals	-7634
▁solid	-7635
▁vessel	-7636
▁occasions	-7637
▁vig	-7638
▁ambassador	-7639
▁Glasgow	-7640
▁ends	-7641
etime	-7642
▁plants	-7643
tletico	-7644
bie	-7645
▁taste	-7646
▁mine	-7647
dog	-7648
▁Illinois	-7649
▁Aff	-7650
▁firing	-7651
▁transpl	-7652
▁controlled	-7653
▁pace	-7654
▁succeed	-7655
▁ster	-7656
▁tracks	-7657
▁Stuart	-7658
▁automatic	-7659
▁cigaret	-7660
▁bik	-7661
ateful	-7662
▁Seattle	-7663
otherapy	-7664
▁tourist	-7665
▁attracted	-7666
▁multi	-7667
▁fel	-7668
▁Crystal	-7669
itage	-7670
acular	-7671
olly	-7672
▁county	-7673
▁65	-7674
▁integr	-7675
asion	-7676
After	-7677
▁delivery	-7678
▁youngest	-7679
▁tail	-7680
▁bizarre	-7681
def	-7682
▁habit	-7683
▁Gil	-7684
▁CBS	-7685
▁enorm	-7686
▁rehab	-7687
▁drone	-7688
▁grave	-7689
▁founded	-7690
▁praised	-7691
▁chocolate	-7692
PD	-7693
▁goods	-7694
▁aboard	-7695
▁Medic	-7696
▁Hu	-7697
onscious	-7698
▁Laden	-7699
▁NY	-7700
▁desire	-7701
▁trophy	-7702
▁lad	-7703
▁types	-7704
▁papers	-7705
▁Roger	-7706
▁packed	-7707
lad	-7708
▁accur	-7709
enny	-7710
▁stem	-7711
▁fier	-7712
▁loud	-7713
▁exciting	-7714
tar	-7715
▁burned	-7716
▁warrant	-7717
▁acknowledged	-7718
▁Bond	-7719
▁commentary	-7720
▁movies	-7721
▁Westminster	-7722
▁athletes	-7723
▁emp	-7724
▁Heath	-7725
▁Head	-7726
issions	-7727
tes	-7728
▁34	-7729
▁convinced	-7730
case	-7731
▁applied	-7732
▁filming	-7733
but	-7734
dad	-7735
▁cos	-7736
▁factor	-7737
▁Davies	-7738
▁Mercedes	-7739
▁experiences	-7740
▁grass	-7741
▁tip	-7742
▁Aaron	-7743
▁positions	-7744
▁End	-7745
▁titles	-7746
▁hung	-7747
▁14-	-7748
grees	-7749
▁Utah	-7750
▁Atletico	-7751
▁Connecticut	-7752
▁Portugal	-7753
▁Mario	-7754
▁neighbours	-7755
▁governments	-7756
▁Ha	-7757
otelli	-7758
▁Susan	-7759
▁extensive	-7760
soft	-7761
▁ske	-7762
eler	-7763
▁regional	-7764
▁territory	-7765
▁application	-7766
▁sac	-7767
zing	-7768
▁bon	-7769
box	-7770
▁Int	-7771
▁capacity	-7772
▁regarding	-7773
▁Alabama	-7774
▁exclusive	-7775
▁iPad	-7776
▁Ward	-7777
anes	-7778
▁wing	-7779
▁effectively	-7780
▁Hawai	-7781
▁commander	-7782
▁McK	-7783
▁visits	-7784
▁recording	-7785
ja	-7786
acement	-7787
▁elsewhere	-7788
▁package	-7789
enez	-7790
aware	-7791
lings	-7792
▁classes	-7793
▁Friends	-7794
▁48	-7795
writ	-7796
▁gender	-7797
▁Sandy	-7798
▁accommod	-7799
▁condemned	-7800
▁surprising	-7801
zerland	-7802
▁breathing	-7803
▁bone	-7804
▁initi	-7805
▁22-	-7806
▁Leg	-7807
▁cream	-7808
▁usual	-7809
▁toilet	-7810
▁11,	-7811
owa	-7812
uous	-7813
▁strange	-7814
ether	-7815
▁registered	-7816
▁Dj	-7817
▁sheriff	-7818
▁Hur	-7819
▁Call	-7820
▁keeps	-7821
▁organisation	-7822
▁2002	-7823
▁toll	-7824
active	-7825
▁Balotelli	-7826
▁Derby	-7827
▁formal	-7828
▁Play	-7829
▁conver	-7830
▁suggesting	-7831
▁screaming	-7832
▁stronger	-7833
▁temporary	-7834
▁basketball	-7835
car	-7836
above	-7837
▁opponents	-7838
▁46	-7839
▁Row	-7840
▁Secret	-7841
▁smugg	-7842
▁communications	-7843
eor	-7844
▁typically	-7845
made	-7846
▁Howard	-7847
▁encouraged	-7848
▁celebrating	-7849
bris	-7850
▁factory	-7851
yard	-7852
▁21-	-7853
▁honour	-7854
▁Cornwall	-7855
▁generally	-7856
▁hiding	-7857
▁Democrat	-7858
▁Switzerland	-7859
ffield	-7860
▁loyal	-7861
▁barely	-7862
▁closing	-7863
▁welcom	-7864
▁degrees	-7865
owered	-7866
▁manage	-7867
▁summit	-7868
▁renew	-7869
▁requires	-7870
▁Hend	-7871
▁Amanda	-7872
inations	-7873
ikh	-7874
▁Officer	-7875
▁teaching	-7876
endum	-7877
▁independence	-7878
▁Moy	-7879
▁cancel	-7880
▁hanging	-7881
▁combined	-7882
▁deny	-7883
idays	-7884
▁burning	-7885
▁greet	-7886
▁thin	-7887
▁funny	-7888
▁settlement	-7889
dis	-7890
vin	-7891
▁Cas	-7892
▁Beat	-7893
▁Pent	-7894
▁brown	-7895
▁predict	-7896
▁sentencing	-7897
▁grandfather	-7898
▁meals	-7899
▁successfully	-7900
▁Low	-7901
ndrome	-7902
▁homeless	-7903
▁Board	-7904
▁studio	-7905
▁relationships	-7906
▁worn	-7907
▁producer	-7908
certain	-7909
▁supplies	-7910
vant	-7911
heim	-7912
▁guest	-7913
▁winners	-7914
▁meetings	-7915
▁Had	-7916
▁traveling	-7917
TA	-7918
▁23-	-7919
▁Was	-7920
anchez	-7921
▁approval	-7922
▁grabbed	-7923
emed	-7924
▁15,	-7925
▁Ay	-7926
▁searched	-7927
▁sounds	-7928
▁burst	-7929
▁Vis	-7930
▁impressed	-7931
▁affairs	-7932
tering	-7933
icial	-7934
▁anybody	-7935
▁Edinburgh	-7936
▁walks	-7937
▁Sheffield	-7938
▁environmental	-7939
▁mechan	-7940
▁alert	-7941
▁contains	-7942
▁$6	-7943
▁colleague	-7944
▁191	-7945
▁eleph	-7946
▁inapp	-7947
▁Ron	-7948
▁poverty	-7949
▁guards	-7950
▁attached	-7951
CNN	-7952
▁Spring	-7953
cho	-7954
▁Micro	-7955
▁mut	-7956
▁cul	-7957
▁Trib	-7958
▁carbon	-7959
ycling	-7960
▁Anne	-7961
▁HIV	-7962
▁avo	-7963
borough	-7964
▁oldest	-7965
respond	-7966
▁detailed	-7967
▁criminals	-7968
urer	-7969
▁Cat	-7970
▁taxi	-7971
▁accompan	-7972
▁infected	-7973
▁sharp	-7974
▁represents	-7975
▁gro	-7976
▁nick	-7977
▁assaulted	-7978
▁Viet	-7979
▁McCain	-7980
ailand	-7981
din	-7982
-3	-7983
▁Exp	-7984
▁Sanchez	-7985
▁liqu	-7986
▁Edwards	-7987
▁contem	-7988
onnell	-7989
▁blank	-7990
▁Lig	-7991
▁McL	-7992
amber	-7993
▁landsc	-7994
Now	-7995
▁Dubai	-7996
▁concept	-7997
ello	-7998
ture	-7999
▁sib	-8000
▁Notting	-8001
▁values	-8002
▁existing	-8003
da	-8004
▁advised	-8005
▁civilian	-8006
aved	-8007
▁resulted	-8008
▁cited	-8009
grav	-8010
▁slowly	-8011
▁memories	-8012
▁predicted	-8013
abet	-8014
▁vowed	-8015
▁Beckham	-8016
▁OK	-8017
oded	-8018
inking	-8019
▁AC	-8020
▁detectives	-8021
▁Garcia	-8022
▁Aut	-8023
iac	-8024
▁Adams	-8025
▁riding	-8026
wan	-8027
Il	-8028
▁shout	-8029
▁satellite	-8030
▁celebration	-8031
uay	-8032
▁Tou	-8033
▁therefore	-8034
▁Clarke	-8035
▁genuine	-8036
sm	-8037
▁confront	-8038
▁entering	-8039
ois	-8040
▁acted	-8041
▁Look	-8042
▁fundra	-8043
▁stages	-8044
▁Juan	-8045
▁investigations	-8046
▁outcome	-8047
▁Gard	-8048
▁markets	-8049
ricane	-8050
▁teens	-8051
▁1960	-8052
▁thick	-8053
▁Nap	-8054
▁Thailand	-8055
▁probe	-8056
▁mixed	-8057
▁Lion	-8058
▁blocked	-8059
▁nobody	-8060
▁advertising	-8061
▁Form	-8062
istle	-8063
▁contrast	-8064
▁Barcl	-8065
▁Duncan	-8066
icts	-8067
▁checked	-8068
▁rebel	-8069
▁stole	-8070
▁CD	-8071
▁veterans	-8072
ami	-8073
▁Enter	-8074
▁artists	-8075
▁Welsh	-8076
▁color	-8077
▁medication	-8078
▁cry	-8079
▁Cuba	-8080
▁aer	-8081
▁branch	-8082
▁referendum	-8083
▁Spurs	-8084
▁Special	-8085
▁Ho	-8086
▁neither	-8087
▁$5	-8088
ighth	-8089
▁Chile	-8090
▁containing	-8091
▁Ret	-8092
▁marry	-8093
osh	-8094
▁tape	-8095
▁interviews	-8096
▁2007,	-8097
apes	-8098
▁luck	-8099
osition	-8100
▁firefighters	-8101
sung	-8102
unior	-8103
season	-8104
usting	-8105
▁ordeal	-8106
▁Live	-8107
▁Father	-8108
iatric	-8109
▁speaks	-8110
▁opposite	-8111
leep	-8112
▁Amy	-8113
▁stable	-8114
▁HM	-8115
▁harder	-8116
▁•	-8117
▁Iowa	-8118
▁theory	-8119
▁$7	-8120
rets	-8121
ded	-8122
▁horses	-8123
profile	-8124
▁Education	-8125
▁procedures	-8126
▁accusations	-8127
beat	-8128
▁finds	-8129
olph	-8130
ecting	-8131
▁nerv	-8132
mund	-8133
▁obvious	-8134
▁Emer	-8135
▁mand	-8136
▁emph	-8137
▁bacter	-8138
▁monitor	-8139
▁37	-8140
▁Mack	-8141
children	-8142
▁cruel	-8143
▁5,	-8144
▁volunteers	-8145
▁Snowden	-8146
▁prepar	-8147
▁Raf	-8148
▁apps	-8149
▁remarkable	-8150
▁migrants	-8151
▁gunman	-8152
▁copy	-8153
▁10,000	-8154
▁expecting	-8155
▁38	-8156
ilst	-8157
▁crossing	-8158
▁throwing	-8159
▁importance	-8160
▁7,	-8161
▁2007.	-8162
▁Free	-8163
▁suspicious	-8164
▁negotiations	-8165
▁gest	-8166
▁Morris	-8167
▁opposed	-8168
ctic	-8169
▁Collins	-8170
▁Tes	-8171
▁wealthy	-8172
gt	-8173
wing	-8174
▁dict	-8175
▁hunt	-8176
▁Cy	-8177
adh	-8178
stri	-8179
▁lav	-8180
▁sporting	-8181
▁nomin	-8182
▁function	-8183
▁visible	-8184
▁collapse	-8185
▁religion	-8186
▁diplomatic	-8187
▁speculation	-8188
▁Amb	-8189
▁answers	-8190
ught	-8191
▁voting	-8192
rehens	-8193
caster	-8194
▁brings	-8195
acc	-8196
▁Py	-8197
▁Key	-8198
▁owns	-8199
▁Treas	-8200
Ass	-8201
umes	-8202
▁appearing	-8203
▁Rand	-8204
▁transl	-8205
▁Blue	-8206
▁lifted	-8207
▁Leban	-8208
▁mask	-8209
hem	-8210
▁bru	-8211
▁Rome	-8212
▁manner	-8213
Rep	-8214
▁Katie	-8215
▁skull	-8216
▁reforms	-8217
wa	-8218
▁architect	-8219
▁glam	-8220
▁brave	-8221
▁chicken	-8222
cott	-8223
▁ethnic	-8224
▁hosts	-8225
▁flooding	-8226
▁Tar	-8227
▁persu	-8228
▁admit	-8229
▁bosses	-8230
▁Shaw	-8231
ellent	-8232
▁Flight	-8233
▁trips	-8234
▁Business	-8235
▁stations	-8236
▁spin	-8237
▁Polit	-8238
▁innov	-8239
pes	-8240
▁twins	-8241
▁Maryland	-8242
▁Griff	-8243
▁Bon	-8244
▁Arabia	-8245
▁waited	-8246
endent	-8247
▁eggs	-8248
▁racial	-8249
roit	-8250
▁tag	-8251
axy	-8252
▁Knight	-8253
▁univers	-8254
▁ox	-8255
▁witnessed	-8256
▁Ban	-8257
▁illeg	-8258
ulture	-8259
▁entitled	-8260
▁ITV	-8261
▁recon	-8262
▁materials	-8263
▁Ukip	-8264
▁entry	-8265
▁symp	-8266
berry	-8267
▁Hills	-8268
▁Bloom	-8269
▁confron	-8270
arms	-8271
▁races	-8272
▁select	-8273
▁referring	-8274
▁Agu	-8275
▁£1.	-8276
▁faster	-8277
▁Swiss	-8278
▁organizations	-8279
▁2001	-8280
▁Burnley	-8281
?’	-8282
▁announce	-8283
early	-8284
▁covering	-8285
▁ships	-8286
▁electricity	-8287
▁Az	-8288
rast	-8289
▁cruise	-8290
▁appointed	-8291
▁Kenya	-8292
▁argue	-8293
▁Emb	-8294
▁debris	-8295
armed	-8296
▁Defence	-8297
▁Margaret	-8298
omy	-8299
▁Fur	-8300
onz	-8301
▁Administration	-8302
▁Les	-8303
▁Surrey	-8304
▁encounter	-8305
▁sustained	-8306
▁Around	-8307
▁rig	-8308
load	-8309
▁reception	-8310
essing	-8311
▁trick	-8312
▁Bos	-8313
▁requests	-8314
unction	-8315
▁indicated	-8316
rait	-8317
▁fab	-8318
▁recru	-8319
▁crews	-8320
▁competitive	-8321
▁shark	-8322
▁tent	-8323
▁resolution	-8324
▁wire	-8325
▁pron	-8326
▁strongly	-8327
tt	-8328
▁awa	-8329
▁acad	-8330
▁calc	-8331
▁locals	-8332
▁Others	-8333
umph	-8334
▁Anna	-8335
▁Samsung	-8336
Sh	-8337
▁Phillips	-8338
▁Bad	-8339
▁begun	-8340
▁discussed	-8341
iro	-8342
▁sam	-8343
▁disabled	-8344
800	-8345
▁transferred	-8346
▁accompanied	-8347
▁cope	-8348
▁awards	-8349
▁Tories	-8350
▁fishing	-8351
▁Reid	-8352
▁Kay	-8353
▁crowds	-8354
aghdad	-8355
▁comedy	-8356
▁Greek	-8357
▁ages	-8358
▁pump	-8359
upper	-8360
▁Armstrong	-8361
▁error	-8362
▁ramp	-8363
▁Castro	-8364
▁mystery	-8365
▁Tem	-8366
▁allies	-8367
oty	-8368
▁offices	-8369
▁sch	-8370
▁fame	-8371
▁purchase	-8372
▁Crit	-8373
ivalent	-8374
▁factors	-8375
▁todd	-8376
ported	-8377
▁partnership	-8378
oons	-8379
orer	-8380
▁absence	-8381
▁midfield	-8382
▁Tsar	-8383
▁studying	-8384
file	-8385
▁Authority	-8386
▁Resc	-8387
ureau	-8388
▁disturb	-8389
▁monitoring	-8390
▁Grant	-8391
LA	-8392
▁hotels	-8393
▁protected	-8394
▁activist	-8395
▁hack	-8396
uations	-8397
▁Charlotte	-8398
▁0.	-8399
regon	-8400
▁motion	-8401
▁fract	-8402
▁clip	-8403
▁Sudan	-8404
▁chap	-8405
▁bones	-8406
▁shelter	-8407
▁channel	-8408
▁objects	-8409
Not	-8410
▁inspiration	-8411
lee	-8412
▁Commissioner	-8413
yo	-8414
▁therapy	-8415
▁Hait	-8416
▁McIl	-8417
▁drawing	-8418
cript	-8419
▁retirement	-8420
ximately	-8421
▁crazy	-8422
▁handling	-8423
▁technical	-8424
▁Vin	-8425
▁rounds	-8426
lock	-8427
rete	-8428
▁facts	-8429
▁ourselves	-8430
▁Video	-8431
▁pulling	-8432
▁outfit	-8433
▁constantly	-8434
▁paint	-8435
▁Pictured	-8436
▁Mull	-8437
▁fasc	-8438
▁£20	-8439
▁prospect	-8440
▁estimates	-8441
▁cultural	-8442
▁resigned	-8443
phones	-8444
▁flames	-8445
▁branded	-8446
▁iron	-8447
▁amounts	-8448
▁Et	-8449
▁14,	-8450
▁Station	-8451
uting	-8452
itis	-8453
▁Nov	-8454
▁Tam	-8455
▁shed	-8456
▁theat	-8457
▁please	-8458
▁striking	-8459
▁Nelson	-8460
anne	-8461
▁represented	-8462
▁Poland	-8463
▁pilots	-8464
km	-8465
▁songs	-8466
▁Nigel	-8467
▁Independ	-8468
▁afterwards	-8469
▁enormous	-8470
▁Malaysia	-8471
etch	-8472
▁Haz	-8473
front	-8474
▁Barbara	-8475
▁peaceful	-8476
▁lawmakers	-8477
▁achieved	-8478
▁Cher	-8479
▁selection	-8480
.-	-8481
▁garage	-8482
▁Sgt	-8483
▁chall	-8484
▁tweets	-8485
oko	-8486
embley	-8487
▁exit	-8488
▁smashed	-8489
▁Oregon	-8490
with	-8491
▁aside	-8492
▁Travel	-8493
▁diplom	-8494
list	-8495
▁Kurd	-8496
▁Dy	-8497
▁Krist	-8498
▁Forest	-8499
terror	-8500
▁units	-8501
▁Detroit	-8502
Ne	-8503
▁curren	-8504
▁PC	-8505
▁TH	-8506
▁jurors	-8507
ointing	-8508
▁essential	-8509
▁yes	-8510
▁constant	-8511
▁spectacular	-8512
ici	-8513
▁touched	-8514
ucks	-8515
▁Civil	-8516
▁forever	-8517
▁industrial	-8518
▁Domin	-8519
▁dressing	-8520
▁extent	-8521
▁Wembley	-8522
▁spray	-8523
▁Fund	-8524
ilding	-8525
▁Pelle	-8526
▁stamp	-8527
▁networks	-8528
▁pill	-8529
enda	-8530
▁Bart	-8531
ructure	-8532
▁breakfast	-8533
▁attorneys	-8534
wife	-8535
▁Donald	-8536
▁conced	-8537
▁2014.	-8538
raf	-8539
iki	-8540
▁Rice	-8541
▁regulations	-8542
▁911	-8543
▁sty	-8544
▁Nottingham	-8545
▁representing	-8546
idents	-8547
▁Austin	-8548
▁trains	-8549
uer	-8550
▁AT	-8551
idal	-8552
▁stealing	-8553
▁exhibition	-8554
▁distr	-8555
▁defensive	-8556
▁tox	-8557
abs	-8558
▁Captain	-8559
ippi	-8560
▁headlines	-8561
▁portray	-8562
▁Berlin	-8563
▁creative	-8564
▁computers	-8565
▁sensitive	-8566
▁delayed	-8567
greg	-8568
▁medicine	-8569
▁Midlands	-8570
▁Barclays	-8571
ati	-8572
▁Dor	-8573
▁hunting	-8574
▁cub	-8575
actor	-8576
gging	-8577
▁Soph	-8578
▁elim	-8579
▁marketing	-8580
▁significantly	-8581
▁flown	-8582
▁fined	-8583
▁forms	-8584
▁Bailey	-8585
▁Pop	-8586
▁Morning	-8587
▁Ald	-8588
▁supermarket	-8589
gage	-8590
▁regret	-8591
▁personally	-8592
▁equivalent	-8593
▁recovering	-8594
▁Microsoft	-8595
▁breach	-8596
▁disag	-8597
▁Devon	-8598
▁nurses	-8599
▁Brendan	-8600
chi	-8601
second	-8602
▁McIlroy	-8603
▁Eth	-8604
rous	-8605
▁comprom	-8606
▁spac	-8607
▁substant	-8608
His	-8609
▁blaze	-8610
▁lessons	-8611
▁Stat	-8612
▁counsel	-8613
▁everywhere	-8614
▁popularity	-8615
▁obst	-8616
▁knock	-8617
▁symbol	-8618
▁26-	-8619
erald	-8620
▁vs	-8621
▁Manuel	-8622
▁Tun	-8623
▁regul	-8624
▁citizen	-8625
▁cloud	-8626
▁Warren	-8627
▁highlight	-8628
▁Associated	-8629
weather	-8630
abe	-8631
▁Night	-8632
▁imprison	-8633
igger	-8634
▁proceedings	-8635
▁pages	-8636
ayed	-8637
▁Euro	-8638
▁nickn	-8639
▁performances	-8640
vy	-8641
amedics	-8642
▁bottles	-8643
▁Ple	-8644
▁Vol	-8645
▁hug	-8646
▁actual	-8647
ropolitan	-8648
▁Fest	-8649
▁Est	-8650
▁Lawrence	-8651
▁traveled	-8652
▁Chap	-8653
▁mini	-8654
▁representative	-8655
▁Const	-8656
▁horror	-8657
▁tired	-8658
Assad	-8659
riers	-8660
enging	-8661
▁Sportsmail	-8662
▁Child	-8663
▁inmates	-8664
▁safely	-8665
12	-8666
▁Wolf	-8667
▁towns	-8668
▁dim	-8669
abis	-8670
▁sevent	-8671
ician	-8672
uable	-8673
bits	-8674
▁twin	-8675
▁noise	-8676
▁odds	-8677
▁holidays	-8678
▁earthquake	-8679
▁smell	-8680
▁Eastern	-8681
▁personality	-8682
▁restrictions	-8683
▁Cabinet	-8684
▁recruit	-8685
▁survival	-8686
zy	-8687
▁smartphone	-8688
AC	-8689
▁Chan	-8690
ser	-8691
▁welcomed	-8692
▁ministry	-8693
▁toler	-8694
▁specifically	-8695
inter	-8696
iants	-8697
▁dates	-8698
▁Downing	-8699
▁painful	-8700
abilities	-8701
▁stroke	-8702
▁rebu	-8703
▁Barry	-8704
▁Bale	-8705
▁neur	-8706
issa	-8707
▁forcing	-8708
▁polls	-8709
▁warnings	-8710
▁targeting	-8711
▁division	-8712
▁viewed	-8713
OS	-8714
▁ce	-8715
▁Britons	-8716
▁cert	-8717
▁throat	-8718
▁42	-8719
▁Jesus	-8720
guard	-8721
thal	-8722
bag	-8723
▁posing	-8724
▁Dougl	-8725
▁indict	-8726
ifted	-8727
usal	-8728
▁11.	-8729
ogether	-8730
winning	-8731
▁Monaco	-8732
▁reference	-8733
▁tens	-8734
▁Indonesia	-8735
olar	-8736
▁reads	-8737
▁assass	-8738
▁emotion	-8739
iences	-8740
▁cats	-8741
▁seed	-8742
▁foods	-8743
▁feelings	-8744
▁Bah	-8745
▁shame	-8746
rors	-8747
icing	-8748
naev	-8749
▁attitude	-8750
math	-8751
TS	-8752
orage	-8753
ims	-8754
▁Darren	-8755
▁Did	-8756
oen	-8757
▁mainly	-8758
looking	-8759
▁sail	-8760
▁upper	-8761
▁Cele	-8762
▁alarm	-8763
ipal	-8764
▁shell	-8765
▁beneath	-8766
▁Dri	-8767
▁dust	-8768
nesota	-8769
▁detention	-8770
oir	-8771
▁memor	-8772
▁Safety	-8773
▁fitted	-8774
▁32,	-8775
accept	-8776
iller	-8777
▁Tsarnaev	-8778
▁salary	-8779
▁managing	-8780
▁donations	-8781
▁roughly	-8782
▁Pentagon	-8783
▁legit	-8784
▁coroner	-8785
▁anticip	-8786
laughter	-8787
▁booked	-8788
▁Hawaii	-8789
▁Sweden	-8790
▁discussion	-8791
▁ridic	-8792
inder	-8793
▁democracy	-8794
▁discrimination	-8795
mile	-8796
▁Mandela	-8797
▁nervous	-8798
▁stretch	-8799
▁Ven	-8800
▁mood	-8801
▁addressed	-8802
▁backing	-8803
▁Murphy	-8804
▁deemed	-8805
nity	-8806
▁prohib	-8807
▁frequently	-8808
held	-8809
hett	-8810
urers	-8811
bal	-8812
▁insurg	-8813
ais	-8814
▁Serge	-8815
▁Kansas	-8816
▁peak	-8817
▁Ap	-8818
iques	-8819
▁PM	-8820
▁27-	-8821
▁Jong	-8822
▁Islamist	-8823
▁Qatar	-8824
▁silence	-8825
▁businessman	-8826
▁uncle	-8827
Mr	-8828
▁liked	-8829
▁wildlife	-8830
▁inappropriate	-8831
▁Hit	-8832
▁sacked	-8833
▁typical	-8834
▁Anfield	-8835
▁courage	-8836
▁Golden	-8837
lb	-8838
viously	-8839
orld	-8840
▁combination	-8841
▁gri	-8842
▁Hamas	-8843
▁managers	-8844
▁Keith	-8845
onduct	-8846
▁Tok	-8847
▁(2	-8848
▁websites	-8849
▁humanitarian	-8850
door	-8851
▁Roma	-8852
oping	-8853
▁militant	-8854
esity	-8855
rahim	-8856
graph	-8857
▁seasons	-8858
▁picking	-8859
▁probation	-8860
▁adviser	-8861
▁kidnapping	-8862
▁taxpayers	-8863
ups	-8864
▁Ney	-8865
▁Hope	-8866
estone	-8867
▁pocket	-8868
.)	-8869
▁coord	-8870
▁PS	-8871
▁Prov	-8872
▁footballer	-8873
▁rarely	-8874
▁studied	-8875
▁Case	-8876
▁analyst	-8877
▁crossed	-8878
▁Tenness	-8879
▁concert	-8880
▁Minnesota	-8881
▁ec	-8882
▁Dean	-8883
▁Class	-8884
▁Oliver	-8885
▁realized	-8886
▁dial	-8887
▁Detective	-8888
▁Bash	-8889
▁breaks	-8890
▁returns	-8891
▁Eve	-8892
▁controls	-8893
▁Alaska	-8894
▁photographed	-8895
▁trigg	-8896
▁roles	-8897
▁Sony	-8898
▁executed	-8899
level	-8900
issippi	-8901
▁nights	-8902
RO	-8903
▁dancing	-8904
▁reass	-8905
▁baseball	-8906
lessly	-8907
aven	-8908
▁Ren	-8909
▁advanced	-8910
igious	-8911
▁Cou	-8912
▁fing	-8913
encer	-8914
▁recommended	-8915
▁physically	-8916
▁reven	-8917
▁fortune	-8918
▁minority	-8919
asty	-8920
erez	-8921
oria	-8922
▁cycl	-8923
▁cousin	-8924
▁Div	-8925
▁Plan	-8926
▁directed	-8927
▁license	-8928
▁parked	-8929
jo	-8930
▁jacket	-8931
page	-8932
▁Stur	-8933
abetes	-8934
▁frame	-8935
▁mere	-8936
olved	-8937
▁Biden	-8938
etta	-8939
▁Fro	-8940
ruguay	-8941
▁realise	-8942
▁Bat	-8943
▁99	-8944
▁Ry	-8945
acht	-8946
ometimes	-8947
▁treating	-8948
ras	-8949
▁Box	-8950
▁destination	-8951
▁Louisiana	-8952
▁designs	-8953
▁survivors	-8954
▁Freed	-8955
bey	-8956
pre	-8957
ierra	-8958
oration	-8959
▁scientific	-8960
▁Somalia	-8961
hat	-8962
▁Indiana	-8963
▁Kyle	-8964
ylum	-8965
▁somewhere	-8966
orse	-8967
ructed	-8968
▁12,	-8969
cription	-8970
▁missile	-8971
▁torture	-8972
amo	-8973
▁teach	-8974
▁neighbors	-8975
ahl	-8976
▁bears	-8977
▁collision	-8978
▁youngster	-8979
▁entertainment	-8980
▁tools	-8981
▁Vlad	-8982
▁tech	-8983
▁appointment	-8984
▁43	-8985
gate	-8986
bedroom	-8987
sk	-8988
rastructure	-8989
While	-8990
▁Uruguay	-8991
▁entrance	-8992
▁mistakes	-8993
▁transp	-8994
▁Thanks	-8995
▁Neymar	-8996
▁phen	-8997
▁elite	-8998
▁rocks	-8999
▁bitter	-9000
iture	-9001
▁flash	-9002
▁viral	-9003
▁diamond	-9004
▁10,	-9005
▁employment	-9006
▁Alb	-9007
rolled	-9008
▁licence	-9009
▁Yes	-9010
▁communication	-9011
high	-9012
▁adj	-9013
▁Rachel	-9014
▁battling	-9015
▁wet	-9016
▁manslaughter	-9017
host	-9018
election	-9019
▁camps	-9020
▁Mississippi	-9021
ahu	-9022
▁Federer	-9023
▁sustain	-9024
▁Knox	-9025
▁upcoming	-9026
▁Sov	-9027
mans	-9028
▁youngsters	-9029
wealth	-9030
▁hosted	-9031
▁grateful	-9032
tim	-9033
▁settled	-9034
top	-9035
▁Emirates	-9036
ullah	-9037
▁loving	-9038
▁winger	-9039
▁deployed	-9040
▁tool	-9041
▁Hundreds	-9042
▁tiss	-9043
▁compound	-9044
▁Buckingham	-9045
▁criticized	-9046
▁escal	-9047
▁Antonio	-9048
▁illegally	-9049
▁graduate	-9050
▁44	-9051
▁33,	-9052
SW	-9053
lec	-9054
nsic	-9055
▁pupp	-9056
▁intim	-9057
▁perfectly	-9058
▁admitting	-9059
hill	-9060
▁13-	-9061
leton	-9062
▁Cair	-9063
▁Stock	-9064
▁aggrav	-9065
inging	-9066
▁Colombia	-9067
▁deserve	-9068
▁hell	-9069
▁departure	-9070
▁hundred	-9071
▁lovely	-9072
▁excellent	-9073
▁tattoo	-9074
▁Wy	-9075
▁treatments	-9076
idency	-9077
▁NBA	-9078
lar	-9079
▁sed	-9080
▁unfair	-9081
acceptable	-9082
▁sequ	-9083
▁distress	-9084
itched	-9085
▁operate	-9086
arth	-9087
▁Ref	-9088
▁Nether	-9089
▁Cristiano	-9090
▁telephone	-9091
akh	-9092
▁ingred	-9093
▁Mas	-9094
▁Hal	-9095
▁Made	-9096
▁Magistrates	-9097
▁Tennessee	-9098
▁donated	-9099
▁Reporter	-9100
▁involves	-9101
▁opponent	-9102
▁transplant	-9103
uments	-9104
▁Ahmed	-9105
ighed	-9106
oca	-9107
▁decline	-9108
▁SU	-9109
▁unw	-9110
▁warn	-9111
atched	-9112
expected	-9113
▁mentioned	-9114
▁lowest	-9115
▁consultant	-9116
▁Douglas	-9117
bi	-9118
▁Nob	-9119
▁citing	-9120
▁grey	-9121
▁Where	-9122
▁politician	-9123
oni	-9124
step	-9125
▁12.	-9126
▁practices	-9127
▁ank	-9128
▁Latin	-9129
club	-9130
▁Holmes	-9131
▁encouraging	-9132
▁questioning	-9133
rical	-9134
eling	-9135
▁Having	-9136
▁carefully	-9137
▁regions	-9138
reprene	-9139
▁appeals	-9140
▁7-	-9141
▁investors	-9142
▁kidney	-9143
hum	-9144
▁Farage	-9145
upid	-9146
▁furn	-9147
otti	-9148
veland	-9149
▁dragged	-9150
apore	-9151
▁singing	-9152
▁approximately	-9153
▁tensions	-9154
▁experiment	-9155
org	-9156
▁triumph	-9157
▁shadow	-9158
▁Sussex	-9159
▁selected	-9160
".	-9161
▁toug	-9162
▁Queensland	-9163
areth	-9164
enezuel	-9165
▁indeed	-9166
▁challenging	-9167
▁Moyes	-9168
▁sentences	-9169
▁Sierra	-9170
▁pending	-9171
▁Bent	-9172
▁Maur	-9173
▁Silver	-9174
▁increases	-9175
▁separated	-9176
stan	-9177
▁Neighb	-9178
▁extend	-9179
▁Bradley	-9180
obi	-9181
▁id	-9182
▁Avenue	-9183
ums	-9184
uits	-9185
▁Savile	-9186
▁Somers	-9187
▁engineer	-9188
▁residence	-9189
▁3-	-9190
▁aims	-9191
uan	-9192
inion	-9193
aws	-9194
▁Pistor	-9195
▁Ul	-9196
ested	-9197
▁Benn	-9198
▁Witness	-9199
▁asks	-9200
▁Treasury	-9201
▁Sut	-9202
fortunately	-9203
▁Winter	-9204
▁carries	-9205
▁11-	-9206
▁alt	-9207
New	-9208
pton	-9209
▁Hon	-9210
found	-9211
▁Short	-9212
aga	-9213
olis	-9214
▁Aud	-9215
▁purchased	-9216
▁oblig	-9217
▁Gro	-9218
▁Nazi	-9219
▁£10	-9220
▁buck	-9221
▁Gray	-9222
▁foundation	-9223
agne	-9224
▁fright	-9225
walk	-9226
▁ignored	-9227
▁Later	-9228
▁Ivan	-9229
▁seventh	-9230
▁Seven	-9231
▁lake	-9232
▁saving	-9233
▁leaked	-9234
▁Bowl	-9235
ectors	-9236
▁Pistorius	-9237
▁Thatcher	-9238
xual	-9239
▁Kentucky	-9240
▁intervention	-9241
ardy	-9242
iggs	-9243
▁Dog	-9244
▁venue	-9245
▁100,000	-9246
▁Thousands	-9247
▁Julie	-9248
▁Your	-9249
▁guidelines	-9250
▁9/	-9251
Bl	-9252
▁fed	-9253
▁syn	-9254
▁enemy	-9255
▁quoted	-9256
imir	-9257
▁Cleveland	-9258
▁unconscious	-9259
▁clashes	-9260
uters	-9261
▁assets	-9262
▁prominent	-9263
▁unemployment	-9264
eld	-9265
▁Nasa	-9266
aping	-9267
▁column	-9268
▁painted	-9269
▁Venezuel	-9270
rd	-9271
▁Baghdad	-9272
▁harassment	-9273
awa	-9274
▁muscle	-9275
▁payment	-9276
▁publish	-9277
▁Singapore	-9278
▁stunned	-9279
anges	-9280
▁repair	-9281
acon	-9282
▁Tokyo	-9283
▁belt	-9284
▁respective	-9285
▁Ted	-9286
▁chaos	-9287
▁volcan	-9288
▁Android	-9289
▁3,000	-9290
▁13,	-9291
bean	-9292
▁Sin	-9293
▁Techn	-9294
▁Obam	-9295
▁gent	-9296
▁gear	-9297
▁pronounced	-9298
▁rear	-9299
portion	-9300
▁Awards	-9301
▁flow	-9302
▁Sergio	-9303
▁murders	-9304
▁Netherlands	-9305
▁remembered	-9306
itated	-9307
▁secured	-9308
formation	-9309
pat	-9310
▁Nathan	-9311
▁Add	-9312
▁consumer	-9313
amous	-9314
ione	-9315
▁infrastructure	-9316
▁mel	-9317
▁Crow	-9318
▁offenders	-9319
▁abortion	-9320
▁instance	-9321
aimed	-9322
▁wrapped	-9323
sen	-9324
▁fence	-9325
▁moder	-9326
▁undergo	-9327
▁Kingdom	-9328
▁cannabis	-9329
▁hyp	-9330
▁guess	-9331
▁Vice	-9332
acey	-9333
▁plate	-9334
opsy	-9335
▁$1.	-9336
▁cow	-9337
▁Powell	-9338
▁toddler	-9339
▁cheer	-9340
▁legacy	-9341
▁Bris	-9342
▁2014,	-9343
▁Ferrari	-9344
▁felony	-9345
▁core	-9346
▁correspond	-9347
oken	-9348
▁iRep	-9349
▁Dick	-9350
▁Diana	-9351
▁Parker	-9352
onde	-9353
oa	-9354
orge	-9355
▁dreams	-9356
▁electronic	-9357
▁Denver	-9358
▁Spencer	-9359
▁requested	-9360
▁uncertain	-9361
li	-9362
▁disg	-9363
▁falls	-9364
▁overwhelming	-9365
lbs	-9366
▁trigger	-9367
--	-9368
▁soil	-9369
▁protecting	-9370
ules	-9371
▁Sab	-9372
▁fires	-9373
▁Mayweather	-9374
▁shr	-9375
antha	-9376
▁underwent	-9377
onsin	-9378
okovic	-9379
raining	-9380
▁anonymous	-9381
▁explan	-9382
▁Capital	-9383
▁Festival	-9384
▁ric	-9385
▁Serb	-9386
▁View	-9387
dri	-9388
▁congressional	-9389
stream	-9390
▁genetic	-9391
pson	-9392
ucker	-9393
▁zero	-9394
▁slammed	-9395
▁embassy	-9396
inth	-9397
ockey	-9398
▁Tri	-9399
▁Network	-9400
▁collabor	-9401
asks	-9402
▁Berg	-9403
▁Online	-9404
▁Prix	-9405
▁tips	-9406
Just	-9407
▁extrad	-9408
▁dischar	-9409
▁conscious	-9410
odge	-9411
inf	-9412
▁ho	-9413
▁boasts	-9414
▁enthusi	-9415
▁Formula	-9416
▁Djokovic	-9417
▁Boeing	-9418
▁Memorial	-9419
▁Inf	-9420
ouring	-9421
▁Gareth	-9422
▁finishing	-9423
▁meanwhile	-9424
▁exposure	-9425
:30	-9426
▁disgr	-9427
isconsin	-9428
was	-9429
▁toy	-9430
▁Turner	-9431
▁asylum	-9432
▁34,	-9433
▁enh	-9434
▁pursue	-9435
amford	-9436
▁boxes	-9437
▁vigil	-9438
▁ordinary	-9439
▁Tesco	-9440
▁shore	-9441
▁refugees	-9442
▁element	-9443
iao	-9444
▁Fle	-9445
▁lifetime	-9446
ints	-9447
happy	-9448
▁wanting	-9449
▁emphas	-9450
adhafi	-9451
obile	-9452
▁theme	-9453
▁Project	-9454
▁Lamp	-9455
bul	-9456
▁proof	-9457
▁machines	-9458
▁frozen	-9459
▁revenue	-9460
▁diagnosis	-9461
▁BM	-9462
force	-9463
outed	-9464
▁detain	-9465
▁heroin	-9466
▁maintained	-9467
irm	-9468
▁Baker	-9469
ulating	-9470
▁diabetes	-9471
▁proposals	-9472
▁ease	-9473
wear	-9474
▁campaigns	-9475
aints	-9476
▁Kath	-9477
▁describing	-9478
▁replacement	-9479
▁Heart	-9480
▁Albert	-9481
Ar	-9482
▁affects	-9483
▁anymore	-9484
IT	-9485
ixon	-9486
izza	-9487
▁Libyan	-9488
▁apologised	-9489
thur	-9490
▁Lionel	-9491
▁optim	-9492
mare	-9493
▁Metropolitan	-9494
hner	-9495
▁nationwide	-9496
▁Lauren	-9497
▁desert	-9498
▁mad	-9499
▁prol	-9500
▁boats	-9501
esome	-9502
▁imposed	-9503
ventus	-9504
▁Ark	-9505
ource	-9506
▁coat	-9507
▁crown	-9508
▁pledged	-9509
▁aftermath	-9510
▁underground	-9511
▁Wars	-9512
▁unexpected	-9513
▁Carlos	-9514
▁confessed	-9515
▁resulting	-9516
▁Carib	-9517
ygen	-9518
▁profit	-9519
▁revealing	-9520
aver	-9521
▁Bark	-9522
▁hook	-9523
▁2006,	-9524
▁Simpson	-9525
▁Mans	-9526
oning	-9527
▁fierce	-9528
▁substance	-9529
▁profits	-9530
▁surgeon	-9531
ashire	-9532
▁cabin	-9533
tershire	-9534
ili	-9535
▁soph	-9536
▁Wisconsin	-9537
▁participants	-9538
▁Dale	-9539
lett	-9540
▁duo	-9541
cons	-9542
▁Helen	-9543
▁relie	-9544
rend	-9545
▁concrete	-9546
isan	-9547
beck	-9548
▁caution	-9549
des	-9550
▁overs	-9551
▁weighed	-9552
▁Fernando	-9553
▁passport	-9554
▁engagement	-9555
▁hearts	-9556
▁legally	-9557
400	-9558
▁Circ	-9559
▁rush	-9560
▁elev	-9561
▁reck	-9562
▁reign	-9563
▁airports	-9564
▁Soviet	-9565
▁crop	-9566
▁bread	-9567
▁QC	-9568
▁5,000	-9569
▁Brighton	-9570
▁overcome	-9571
▁Sel	-9572
▁damages	-9573
▁libr	-9574
ograph	-9575
▁passes	-9576
▁bacteria	-9577
▁schedule	-9578
▁Commonwealth	-9579
▁Wol	-9580
mun	-9581
▁shoppers	-9582
▁courtroom	-9583
▁strip	-9584
▁letting	-9585
▁savings	-9586
14	-9587
face	-9588
cedented	-9589
▁install	-9590
▁voc	-9591
▁Corpor	-9592
RC	-9593
▁notorious	-9594
▁Ibrahim	-9595
▁hopeful	-9596
▁distinct	-9597
▁Kurdish	-9598
75	-9599
▁elements	-9600
▁loose	-9601
▁desk	-9602
▁pride	-9603
▁siblings	-9604
▁dresses	-9605
ivan	-9606
▁Assad	-9607
▁destruction	-9608
▁gifts	-9609
▁scrut	-9610
▁Vietnam	-9611
aux	-9612
atican	-9613
▁hammer	-9614
▁bleeding	-9615
unal	-9616
storm	-9617
▁Oliv	-9618
▁Tower	-9619
▁arrang	-9620
▁Shel	-9621
▁isolated	-9622
avig	-9623
▁snap	-9624
arted	-9625
ographer	-9626
och	-9627
comm	-9628
▁kilome	-9629
▁organised	-9630
▁Elect	-9631
▁Islands	-9632
quir	-9633
▁Crim	-9634
▁Ak	-9635
▁cliff	-9636
ucr	-9637
Be	-9638
▁suspension	-9639
▁toys	-9640
▁600	-9641
▁glad	-9642
▁indec	-9643
▁impression	-9644
resent	-9645
▁blocks	-9646
▁stressed	-9647
▁dealt	-9648
andom	-9649
▁Hannah	-9650
▁Boe	-9651
▁serv	-9652
▁Lancashire	-9653
will	-9654
▁SC	-9655
▁Samantha	-9656
▁dish	-9657
▁beloved	-9658
▁Castle	-9659
▁Pellegr	-9660
▁suffers	-9661
mm	-9662
▁Pict	-9663
▁Company	-9664
▁alter	-9665
▁8,	-9666
grade	-9667
▁bullying	-9668
uzz	-9669
▁28-	-9670
▁£1,	-9671
▁Owen	-9672
▁vacation	-9673
Why	-9674
▁Arsene	-9675
▁Juventus	-9676
▁thorough	-9677
▁Catherine	-9678
▁Lloyd	-9679
▁Kane	-9680
igible	-9681
▁Vatican	-9682
▁56	-9683
▁liquid	-9684
▁Telegraph	-9685
hall	-9686
▁Emergency	-9687
▁calories	-9688
95	-9689
▁islands	-9690
▁Rebec	-9691
▁hip	-9692
▁wooden	-9693
▁Nancy	-9694
lined	-9695
▁Media	-9696
▁trading	-9697
▁Hollande	-9698
▁kidnapped	-9699
encia	-9700
▁prayers	-9701
overnment	-9702
cot	-9703
▁competing	-9704
▁recip	-9705
▁smiling	-9706
▁que	-9707
▁delays	-9708
▁Greater	-9709
▁gathering	-9710
▁Jav	-9711
onia	-9712
▁transition	-9713
EFA	-9714
▁riot	-9715
ussels	-9716
▁recall	-9717
▁literally	-9718
▁holes	-9719
****	-9720
▁Rebecca	-9721
opa	-9722
▁rot	-9723
▁Cruz	-9724
▁cycle	-9725
▁wider	-9726
▁agenda	-9727
▁obesity	-9728
▁rib	-9729
uz	-9730
three	-9731
▁hostage	-9732
▁Caribbean	-9733
▁employed	-9734
▁tornado	-9735
liest	-9736
▁refusing	-9737
▁6.5	-9738
isons	-9739
▁Bou	-9740
▁phil	-9741
▁wage	-9742
▁keeper	-9743
▁Persie	-9744
▁soul	-9745
▁Stafford	-9746
obb	-9747
▁borrow	-9748
aning	-9749
▁Expl	-9750
grat	-9751
▁Pellegrini	-9752
▁diver	-9753
leans	-9754
▁trafficking	-9755
rad	-9756
▁Lut	-9757
▁promises	-9758
▁Ins	-9759
▁cler	-9760
ali	-9761
▁Hond	-9762
▁deficit	-9763
▁plun	-9764
▁stim	-9765
▁watches	-9766
▁Liga	-9767
▁cake	-9768
▁Oz	-9769
▁Bron	-9770
▁astronaut	-9771
imm	-9772
▁mo	-9773
shirt	-9774
▁Price	-9775
▁Vladimir	-9776
▁entreprene	-9777
omed	-9778
▁persp	-9779
▁corporate	-9780
▁clock	-9781
▁print	-9782
▁Sad	-9783
▁demonstrators	-9784
ques	-9785
▁handful	-9786
▁methods	-9787
▁Tan	-9788
▁1950	-9789
▁Benj	-9790
iveness	-9791
▁smiles	-9792
▁dise	-9793
jan	-9794
▁Right	-9795
▁boots	-9796
▁mamm	-9797
▁covers	-9798
▁Tro	-9799
spe	-9800
▁Angela	-9801
▁Environment	-9802
▁brands	-9803
▁classroom	-9804
▁3-0	-9805
unning	-9806
▁convictions	-9807
▁Brooks	-9808
▁Brid	-9809
▁urging	-9810
35	-9811
▁confronted	-9812
▁fo	-9813
▁Affairs	-9814
▁Lank	-9815
▁RAF	-9816
FC	-9817
bound	-9818
▁invasion	-9819
▁foul	-9820
▁Bolton	-9821
300	-9822
▁Next	-9823
▁Emily	-9824
▁fortun	-9825
▁fate	-9826
▁Nicole	-9827
identified	-9828
alo	-9829
lie	-9830
▁soccer	-9831
▁technique	-9832
17	-9833
▁Develop	-9834
▁choices	-9835
▁accidentally	-9836
enz	-9837
mind	-9838
▁arrives	-9839
ario	-9840
▁Vincent	-9841
▁signal	-9842
bane	-9843
▁whilst	-9844
▁triggered	-9845
▁GM	-9846
▁Lambert	-9847
▁nightclub	-9848
▁Sent	-9849
osa	-9850
▁wheelchair	-9851
▁differences	-9852
▁1999	-9853
▁groom	-9854
▁aggravated	-9855
▁rolled	-9856
▁defendants	-9857
Oh	-9858
▁39	-9859
finals	-9860
addy	-9861
▁ranks	-9862
▁landscape	-9863
▁29-	-9864
▁pound	-9865
▁ideal	-9866
▁pip	-9867
▁Caroline	-9868
▁Rosberg	-9869
▁midnight	-9870
▁sessions	-9871
cao	-9872
dam	-9873
▁Celebr	-9874
▁UEFA	-9875
▁Bed	-9876
▁fields	-9877
▁finance	-9878
aro	-9879
▁chase	-9880
opez	-9881
▁careful	-9882
▁burns	-9883
embly	-9884
▁orange	-9885
▁athlete	-9886
▁oxygen	-9887
▁globe	-9888
▁creation	-9889
▁dumped	-9890
▁colours	-9891
▁evacuated	-9892
▁Liberal	-9893
▁screening	-9894
▁association	-9895
ographic	-9896
▁frustrated	-9897
ortmund	-9898
enson	-9899
▁eval	-9900
▁NSW	-9901
▁sque	-9902
▁runway	-9903
▁tactics	-9904
▁seemingly	-9905
▁35,	-9906
ighting	-9907
▁Norway	-9908
▁Bobby	-9909
▁arguing	-9910
▁samples	-9911
▁intimid	-9912
▁punched	-9913
aki	-9914
▁salt	-9915
▁scul	-9916
▁spots	-9917
▁stops	-9918
22	-9919
▁toxic	-9920
▁£30	-9921
▁improving	-9922
▁exha	-9923
▁swept	-9924
▁Somerset	-9925
▁lasted	-9926
▁Cape	-9927
▁limits	-9928
▁Phoen	-9929
kinson	-9930
▁Orleans	-9931
▁Mick	-9932
▁murdering	-9933
▁conversations	-9934
▁cheese	-9935
▁Dortmund	-9936
▁Sri	-9937
▁Philippines	-9938
▁2006.	-9939
▁Pard	-9940
▁sne	-9941
▁realize	-9942
▁Roc	-9943
▁Silva	-9944
▁airstri	-9945
▁principal	-9946
▁producing	-9947
ouces	-9948
pless	-9949
▁obser	-9950
ieber	-9951
▁Nine	-9952
▁furious	-9953
▁liver	-9954
▁parole	-9955
▁airlines	-9956
▁valuable	-9957
itar	-9958
▁Ca	-9959
illo	-9960
▁difficulties	-9961
▁celebrations	-9962
▁congrat	-9963
▁weekly	-9964
▁Mitt	-9965
▁Bishop	-9966
▁urban	-9967
RS	-9968
▁addiction	-9969
▁Cu	-9970
▁expenses	-9971
irds	-9972
▁pure	-9973
▁facial	-9974
▁challenged	-9975
▁strang	-9976
RE	-9977
▁Na	-9978
▁forest	-9979
▁cooking	-9980
▁bite	-9981
▁stunt	-9982
▁Gadhafi	-9983
▁stopping	-9984
▁hopefully	-9985
▁joked	-9986
abul	-9987
▁Yard	-9988
▁syndrome	-9989
▁uncovered	-9990
dles	-9991
▁interior	-9992
▁generations	-9993
iti	-9994
▁CDC	-9995
▁assessment	-9996
stairs	-9997
▁trainer	-9998
▁woke	-9999
▁treas	-10000
▁Boehner	-10001
vard	-10002
▁lover	-10003
agen	-10004
▁bloody	-10005
▁hacking	-10006
600	-10007
eff	-10008
▁Chair	-10009
▁trauma	-10010
▁everyday	-10011
▁interven	-10012
▁intens	-10013
▁rapidly	-10014
▁explosive	-10015
▁Alexis	-10016
▁Student	-10017
▁fiance	-10018
▁tablet	-10019
▁Pier	-10020
▁incor	-10021
through	-10022
▁zoo	-10023
▁Yan	-10024
riages	-10025
▁Easter	-10026
▁outstanding	-10027
▁Ful	-10028
profit	-10029
▁Embassy	-10030
▁Nevada	-10031
▁Assist	-10032
bow	-10033
▁Phoenix	-10034
▁tourism	-10035
▁Maj	-10036
acco	-10037
▁discussions	-10038
▁paed	-10039
▁Rescue	-10040
▁storms	-10041
▁Conf	-10042
▁lobby	-10043
▁cancelled	-10044
▁Gi	-10045
▁Campaign	-10046
▁prisoner	-10047
▁launching	-10048
▁asleep	-10049
▁anxiety	-10050
▁promising	-10051
▁Lopez	-10052
▁starring	-10053
lington	-10054
▁Cust	-10055
GB	-10056
acare	-10057
▁$8	-10058
endment	-10059
▁analysts	-10060
▁caring	-10061
▁laughing	-10062
▁extremists	-10063
▁trials	-10064
▁whistle	-10065
ubb	-10066
▁Hans	-10067
▁engage	-10068
▁feeding	-10069
▁Ye	-10070
▁forth	-10071
▁musical	-10072
▁Saint	-10073
▁Glouces	-10074
100	-10075
▁Joy	-10076
▁Quest	-10077
▁category	-10078
▁undert	-10079
▁romantic	-10080
▁Eight	-10081
▁odd	-10082
eta	-10083
▁Cz	-10084
▁labour	-10085
shine	-10086
opping	-10087
▁Cancer	-10088
▁initiative	-10089
rington	-10090
▁Roberto	-10091
▁massacre	-10092
▁recognition	-10093
▁representatives	-10094
▁prevented	-10095
▁pets	-10096
▁Brisbane	-10097
▁institutions	-10098
▁shouting	-10099
▁balls	-10100
▁cam	-10101
However	-10102
▁volunteer	-10103
uten	-10104
▁Masters	-10105
▁Governor	-10106
▁movements	-10107
ERE	-10108
oval	-10109
▁Econom	-10110
▁Dream	-10111
▁Brussels	-10112
▁examined	-10113
▁Gonz	-10114
▁bol	-10115
▁Falcao	-10116
▁Support	-10117
▁conclusion	-10118
▁actors	-10119
▁underc	-10120
▁3-1	-10121
▁cheek	-10122
▁diseases	-10123
▁250	-10124
insula	-10125
▁shall	-10126
▁eighth	-10127
▁Fashion	-10128
▁kilometers	-10129
▁stake	-10130
▁jumping	-10131
▁lengthy	-10132
▁conven	-10133
idi	-10134
▁troubled	-10135
▁Bureau	-10136
▁Ferdin	-10137
▁lip	-10138
▁illustr	-10139
▁tower	-10140
amental	-10141
▁penalties	-10142
ante	-10143
▁Wals	-10144
▁Zoo	-10145
▁Bund	-10146
▁Harrison	-10147
rov	-10148
▁Cass	-10149
▁overd	-10150
▁Nearly	-10151
▁ultimate	-10152
▁Kit	-10153
ecraft	-10154
▁farmers	-10155
oga	-10156
▁Il	-10157
ussia	-10158
▁briefly	-10159
▁shootings	-10160
comfort	-10161
▁41	-10162
▁gal	-10163
▁prote	-10164
▁glasses	-10165
▁damaging	-10166
▁dropping	-10167
▁Ferdinand	-10168
screen	-10169
▁Leader	-10170
▁resignation	-10171
▁Karen	-10172
▁homicide	-10173
▁Claire	-10174
▁hardly	-10175
▁protective	-10176
▁infant	-10177
▁intensive	-10178
cill	-10179
▁mud	-10180
▁fulf	-10181
▁Benjamin	-10182
▁tissue	-10183
istent	-10184
▁cease	-10185
▁listening	-10186
▁deleg	-10187
▁Science	-10188
▁Dal	-10189
▁Todd	-10190
hettino	-10191
▁meteor	-10192
▁installed	-10193
mod	-10194
▁trem	-10195
▁snapped	-10196
emor	-10197
kel	-10198
▁49	-10199
▁1998	-10200
ambling	-10201
aph	-10202
▁fixed	-10203
▁severely	-10204
avi	-10205
▁consistent	-10206
▁Game	-10207
▁anch	-10208
▁boun	-10209
asha	-10210
▁40,	-10211
▁Members	-10212
▁Holder	-10213
▁Bradford	-10214
▁bombings	-10215
▁descri	-10216
▁storage	-10217
▁random	-10218
▁Columbia	-10219
▁explosives	-10220
▁fer	-10221
▁Champ	-10222
▁Opinion	-10223
▁Said	-10224
▁intr	-10225
ortheast	-10226
▁Ec	-10227
ourse	-10228
▁comedian	-10229
▁indicate	-10230
▁cin	-10231
giving	-10232
▁bride	-10233
▁resear	-10234
▁downtown	-10235
▁fingers	-10236
aggering	-10237
▁Gates	-10238
▁Shi	-10239
▁Stamford	-10240
ci	-10241
▁relaxed	-10242
making	-10243
▁Adrian	-10244
▁Freedom	-10245
ateur	-10246
yon	-10247
▁gard	-10248
▁Kirk	-10249
▁Oak	-10250
acker	-10251
▁Labor	-10252
▁shower	-10253
▁Stephan	-10254
▁Ped	-10255
▁wishes	-10256
▁Nadal	-10257
▁Valencia	-10258
▁qualifying	-10259
▁highway	-10260
onso	-10261
▁poster	-10262
▁displayed	-10263
▁desperately	-10264
emetery	-10265
▁gentle	-10266
▁Current	-10267
isle	-10268
▁duties	-10269
▁Mohamed	-10270
adget	-10271
▁wrest	-10272
▁parade	-10273
▁erupted	-10274
▁historical	-10275
▁Obs	-10276
▁watchdog	-10277
▁dominated	-10278
▁adapt	-10279
▁inher	-10280
Do	-10281
▁dece	-10282
▁medals	-10283
▁fastest	-10284
▁exploded	-10285
▁mountains	-10286
▁Brady	-10287
▁Prosecutor	-10288
▁gown	-10289
▁prest	-10290
▁longest	-10291
▁senator	-10292
LS	-10293
▁cable	-10294
piece	-10295
▁ankle	-10296
▁£9	-10297
▁SUV	-10298
▁currency	-10299
▁Hop	-10300
▁spy	-10301
ementia	-10302
▁47	-10303
CH	-10304
▁Julian	-10305
▁explanation	-10306
ipper	-10307
▁Cosby	-10308
▁releg	-10309
▁Chen	-10310
▁reserved	-10311
▁Age	-10312
▁newborn	-10313
▁forecast	-10314
▁buyers	-10315
▁burglary	-10316
nesty	-10317
Even	-10318
▁rifle	-10319
▁Lan	-10320
PS	-10321
▁answered	-10322
▁executives	-10323
▁Veter	-10324
▁techniques	-10325
▁unpre	-10326
nan	-10327
▁judgment	-10328
▁taxpayer	-10329
▁slim	-10330
▁Control	-10331
▁Pardew	-10332
▁repeat	-10333
▁talented	-10334
▁fabric	-10335
cuff	-10336
GA	-10337
▁Hitler	-10338
▁Orland	-10339
▁Entertain	-10340
▁misconduct	-10341
fect	-10342
▁Grace	-10343
▁Shan	-10344
▁awful	-10345
bus	-10346
▁highlights	-10347
▁applications	-10348
▁cleaning	-10349
▁horrible	-10350
▁terrified	-10351
▁supports	-10352
▁Prest	-10353
▁leather	-10354
▁paramedics	-10355
▁panic	-10356
▁grant	-10357
▁Battle	-10358
▁Australians	-10359
▁unprecedented	-10360
zed	-10361
▁ax	-10362
rena	-10363
▁Valent	-10364
▁Middleton	-10365
▁promoting	-10366
▁Belgian	-10367
othy	-10368
▁Louise	-10369
▁meters	-10370
▁operated	-10371
▁Po	-10372
▁Lucy	-10373
ambers	-10374
▁800	-10375
▁Han	-10376
▁Perez	-10377
Sp	-10378
▁robot	-10379
▁Sat	-10380
▁wages	-10381
▁Senior	-10382
erg	-10383
inee	-10384
▁Residents	-10385
▁march	-10386
▁recre	-10387
▁situations	-10388
):	-10389
Any	-10390
▁deliberately	-10391
▁Alf	-10392
▁god	-10393
ropical	-10394
▁aston	-10395
▁disappointing	-10396
di	-10397
▁Hus	-10398
rition	-10399
inea	-10400
▁lapt	-10401
▁racism	-10402
▁Pit	-10403
▁Lancaster	-10404
mart	-10405
▁complicated	-10406
▁aired	-10407
▁CL	-10408
vere	-10409
▁Field	-10410
fish	-10411
▁gate	-10412
▁whis	-10413
▁expects	-10414
▁expectations	-10415
yang	-10416
▁36,	-10417
omers	-10418
▁recognise	-10419
▁dramatically	-10420
▁opens	-10421
▁Forces	-10422
kg	-10423
▁steal	-10424
▁Daw	-10425
▁FOR	-10426
hedral	-10427
heimer	-10428
▁alerted	-10429
▁Energy	-10430
▁Such	-10431
▁harsh	-10432
▁Palin	-10433
▁carpet	-10434
orey	-10435
regas	-10436
▁Obamacare	-10437
▁defeated	-10438
▁66	-10439
▁Indeed	-10440
▁closest	-10441
▁experim	-10442
▁Protection	-10443
▁colon	-10444
liminary	-10445
ultural	-10446
dro	-10447
itol	-10448
▁Poll	-10449
▁Ur	-10450
atural	-10451
▁Gay	-10452
▁climbing	-10453
▁Inspector	-10454
▁engineering	-10455
arded	-10456
▁reop	-10457
zh	-10458
▁Nat	-10459
▁Light	-10460
▁gotten	-10461
▁openly	-10462
▁cheaper	-10463
ception	-10464
▁recognised	-10465
AS	-10466
▁ID	-10467
azed	-10468
▁Tragic	-10469
▁Jews	-10470
▁honey	-10471
▁Inn	-10472
▁substitute	-10473
▁Billy	-10474
▁Sophie	-10475
owski	-10476
▁Global	-10477
▁connect	-10478
▁Henderson	-10479
onto	-10480
istory	-10481
▁Stevens	-10482
▁privile	-10483
raged	-10484
▁Brun	-10485
▁Sex	-10486
▁Perhaps	-10487
ura	-10488
▁III	-10489
▁Galaxy	-10490
▁losses	-10491
▁cyber	-10492
▁85	-10493
▁flex	-10494
▁awaiting	-10495
▁sued	-10496
▁demonstrations	-10497
▁necessarily	-10498
▁unacceptable	-10499
▁McM	-10500
threat	-10501
▁Larry	-10502
▁Trip	-10503
▁Harvard	-10504
▁uploaded	-10505
▁apologise	-10506
▁prompting	-10507
▁Fabregas	-10508
13	-10509
▁tablets	-10510
▁constitutional	-10511
▁mentally	-10512
▁Hud	-10513
2,000	-10514
▁2005,	-10515
▁Heathrow	-10516
▁widow	-10517
enh	-10518
eway	-10519
▁Sot	-10520
▁Czech	-10521
government	-10522
▁gru	-10523
▁steel	-10524
▁lun	-10525
▁deterior	-10526
▁Ku	-10527
fund	-10528
▁somehow	-10529
▁Spr	-10530
▁button	-10531
ao	-10532
▁Abdul	-10533
▁organized	-10534
▁statistics	-10535
▁unidentified	-10536
▁butter	-10537
▁strain	-10538
pol	-10539
▁Gabri	-10540
▁heels	-10541
▁mail	-10542
▁nightmare	-10543
annon	-10544
▁attacker	-10545
▁pointing	-10546
▁clinical	-10547
▁divorced	-10548
▁Arn	-10549
▁unt	-10550
▁inner	-10551
▁Bath	-10552
▁Above	-10553
▁jewell	-10554
▁stupid	-10555
ouses	-10556
anyahu	-10557
▁tumour	-10558
▁deadline	-10559
tail	-10560
▁ads	-10561
▁Haiti	-10562
▁constitu	-10563
▁Orlando	-10564
iang	-10565
▁mph	-10566
▁NSA	-10567
▁publication	-10568
▁mol	-10569
ormal	-10570
▁pole	-10571
▁slipped	-10572
▁basically	-10573
▁assaulting	-10574
OU	-10575
▁lets	-10576
▁spotlight	-10577
▁converted	-10578
▁cafe	-10579
47	-10580
lus	-10581
▁naturally	-10582
▁radiation	-10583
▁equally	-10584
▁chemotherapy	-10585
▁tons	-10586
Yes	-10587
▁ww	-10588
rien	-10589
▁$20	-10590
▁header	-10591
▁ranked	-10592
▁scientist	-10593
▁Fall	-10594
sized	-10595
▁termin	-10596
gans	-10597
mir	-10598
▁Peace	-10599
▁trio	-10600
▁attrib	-10601
▁battles	-10602
▁famously	-10603
▁crackdown	-10604
▁www	-10605
ibilities	-10606
actions	-10607
▁explore	-10608
▁Aguero	-10609
▁Death	-10610
plete	-10611
▁£500	-10612
▁arguments	-10613
▁undergoing	-10614
▁Guardian	-10615
▁orbit	-10616
▁Lamb	-10617
▁Ahmad	-10618
▁violation	-10619
aders	-10620
▁Senator	-10621
▁Mall	-10622
Don	-10623
▁HERE	-10624
▁perspective	-10625
▁Netanyahu	-10626
mine	-10627
▁Toy	-10628
▁rises	-10629
atching	-10630
▁avoided	-10631
▁dangers	-10632
▁Hass	-10633
▁vaccine	-10634
oday	-10635
you	-10636
▁Ric	-10637
▁Croat	-10638
▁carrier	-10639
▁consent	-10640
▁signature	-10641
asp	-10642
daughter	-10643
kick	-10644
▁stabbing	-10645
▁staggering	-10646
▁accusing	-10647
▁Seb	-10648
▁coinc	-10649
▁Var	-10650
▁sponsors	-10651
ifting	-10652
rowing	-10653
▁Music	-10654
ht	-10655
▁junior	-10656
▁forensic	-10657
▁highlighted	-10658
▁dementia	-10659
▁comparison	-10660
▁Boris	-10661
▁motivated	-10662
▁shake	-10663
▁autopsy	-10664
▁screens	-10665
▁supporter	-10666
▁Front	-10667
▁hailed	-10668
▁guarantee	-10669
▁Tiger	-10670
▁comprehens	-10671
▁mirror	-10672
that	-10673
idance	-10674
▁dining	-10675
▁reluct	-10676
▁Lampard	-10677
▁Teh	-10678
feed	-10679
▁40-	-10680
▁frustration	-10681
idd	-10682
▁Critics	-10683
▁funded	-10684
▁Lebanon	-10685
ING	-10686
ectives	-10687
▁boxing	-10688
▁Alexand	-10689
▁wip	-10690
gement	-10691
▁cord	-10692
▁IV	-10693
OT	-10694
osexual	-10695
▁forgotten	-10696
▁spirits	-10697
▁vanished	-10698
▁vegetables	-10699
▁Abbey	-10700
▁Community	-10701
itate	-10702
▁elabor	-10703
von	-10704
izon	-10705
▁depth	-10706
▁flooded	-10707
▁Argentine	-10708
▁Operation	-10709
▁dign	-10710
▁Hunter	-10711
▁franch	-10712
▁employers	-10713
▁recognize	-10714
enna	-10715
▁lists	-10716
▁Foster	-10717
▁appreciate	-10718
▁proven	-10719
▁relation	-10720
▁percentage	-10721
▁reasonable	-10722
▁backl	-10723
▁warns	-10724
▁Robertson	-10725
▁Happy	-10726
▁volunt	-10727
▁eligible	-10728
▁attractive	-10729
▁77	-10730
▁Mason	-10731
▁phr	-10732
▁perpet	-10733
ework	-10734
▁donor	-10735
▁120	-10736
▁flee	-10737
▁contam	-10738
▁submitted	-10739
▁sculpt	-10740
▁borders	-10741
▁craft	-10742
▁Speaker	-10743
▁Independent	-10744
power	-10745
▁acres	-10746
ghazi	-10747
idges	-10748
▁Kard	-10749
▁praise	-10750
▁Toronto	-10751
▁emerging	-10752
▁Entertainment	-10753
▁turb	-10754
▁MH	-10755
▁resolve	-10756
uese	-10757
ousand	-10758
years	-10759
Then	-10760
▁Cow	-10761
▁govern	-10762
▁promotion	-10763
▁grandchildren	-10764
▁Dead	-10765
affe	-10766
urst	-10767
▁recession	-10768
▁Airways	-10769
▁pod	-10770
▁eager	-10771
▁gross	-10772
▁Bernard	-10773
▁Swedish	-10774
▁responding	-10775
Mar	-10776
▁Kr	-10777
itement	-10778
cribed	-10779
▁basement	-10780
▁phenomen	-10781
▁DJ	-10782
▁Natal	-10783
▁lethal	-10784
▁indictment	-10785
aired	-10786
▁underwater	-10787
▁yard	-10788
amic	-10789
atri	-10790
▁dyn	-10791
▁coma	-10792
▁lap	-10793
▁consecutive	-10794
▁butt	-10795
▁regardless	-10796
yer	-10797
▁Drug	-10798
▁Rafael	-10799
▁petrol	-10800
▁continent	-10801
NP	-10802
▁Opp	-10803
▁slip	-10804
ICK	-10805
▁coaches	-10806
▁portrait	-10807
pret	-10808
▁Colin	-10809
▁sophist	-10810
▁rely	-10811
selling	-10812
▁subsequently	-10813
then	-10814
▁acceler	-10815
vo	-10816
▁Tunis	-10817
▁ratings	-10818
▁restore	-10819
▁presents	-10820
▁gallery	-10821
▁qualify	-10822
heless	-10823
▁fairly	-10824
▁divided	-10825
▁Cer	-10826
▁Cairo	-10827
▁ripped	-10828
▁1-1	-10829
▁42,	-10830
▁operator	-10831
▁qualified	-10832
ilia	-10833
▁extremist	-10834
good	-10835
zes	-10836
▁seiz	-10837
▁waist	-10838
▁presidency	-10839
▁Cand	-10840
▁Almost	-10841
▁thri	-10842
▁graphic	-10843
▁Kardash	-10844
▁Country	-10845
▁liberal	-10846
▁vessels	-10847
▁terrifying	-10848
▁Portuguese	-10849
▁fever	-10850
orset	-10851
▁estimate	-10852
▁Barn	-10853
▁Base	-10854
▁Resp	-10855
▁beaches	-10856
▁Benghazi	-10857
▁contracts	-10858
bes	-10859
▁$10	-10860
▁Peru	-10861
!!	-10862
ubar	-10863
▁comeback	-10864
▁spacecraft	-10865
▁beef	-10866
▁tracking	-10867
▁furniture	-10868
IL	-10869
▁handcuff	-10870
▁consumption	-10871
▁formally	-10872
▁16.	-10873
rac	-10874
▁files	-10875
▁192	-10876
▁Jerry	-10877
▁Arthur	-10878
▁subjected	-10879
▁examination	-10880
bye	-10881
▁38,	-10882
▁flav	-10883
orters	-10884
haul	-10885
▁closure	-10886
▁readers	-10887
doch	-10888
▁bron	-10889
▁detective	-10890
▁participate	-10891
idav	-10892
▁Lin	-10893
ika	-10894
▁calend	-10895
▁seas	-10896
▁Palmer	-10897
▁relevant	-10898
olded	-10899
▁anyway	-10900
▁touching	-10901
utt	-10902
▁Poc	-10903
▁menu	-10904
▁Armed	-10905
▁Cro	-10906
▁solve	-10907
▁(3	-10908
▁Marie	-10909
▁Prison	-10910
▁unrest	-10911
ullivan	-10912
▁phase	-10913
▁existence	-10914
oting	-10915
▁antib	-10916
▁autumn	-10917
▁deport	-10918
▁searches	-10919
▁Luk	-10920
▁radar	-10921
▁Dennis	-10922
▁artific	-10923
▁chronic	-10924
vity	-10925
▁suing	-10926
▁Barnes	-10927
▁2015.	-10928
iscal	-10929
▁Garden	-10930
▁tunnel	-10931
▁52	-10932
▁kinds	-10933
▁motorc	-10934
▁Ath	-10935
▁handled	-10936
iper	-10937
▁Never	-10938
comfortable	-10939
▁Singh	-10940
yes	-10941
▁stripped	-10942
▁Weather	-10943
doing	-10944
▁fare	-10945
▁Casey	-10946
▁Cold	-10947
timore	-10948
▁jeans	-10949
▁endors	-10950
▁respected	-10951
▁rehabil	-10952
▁reducing	-10953
▁bullets	-10954
▁arranged	-10955
▁hostages	-10956
▁recognized	-10957
▁rolling	-10958
four	-10959
▁Suff	-10960
▁explaining	-10961
▁Bennett	-10962
▁Bes	-10963
rupted	-10964
▁appealed	-10965
▁Bloomberg	-10966
▁Animal	-10967
▁Information	-10968
▁urge	-10969
▁struggles	-10970
▁Ast	-10971
▁nowhere	-10972
▁45,	-10973
▁wreckage	-10974
oh	-10975
▁Aber	-10976
▁Way	-10977
▁ast	-10978
▁golden	-10979
▁rubb	-10980
▁Sunni	-10981
▁affidav	-10982
▁missiles	-10983
▁vit	-10984
▁Award	-10985
▁Europa	-10986
▁removing	-10987
iere	-10988
▁edition	-10989
▁statue	-10990
▁regarded	-10991
astro	-10992
▁li	-10993
sl	-10994
▁jets	-10995
▁shouted	-10996
▁introduce	-10997
▁Thai	-10998
▁Kel	-10999
agle	-11000
▁Patri	-11001
▁navig	-11002
EC	-11003
▁mosque	-11004
▁grief	-11005
▁37,	-11006
▁Farm	-11007
▁rating	-11008
umbled	-11009
▁Herald	-11010
▁automatically	-11011
▁endured	-11012
▁Nik	-11013
▁Pep	-11014
▁halt	-11015
▁newspapers	-11016
▁lesson	-11017
▁offender	-11018
▁Stra	-11019
stitutes	-11020
▁emotions	-11021
▁marathon	-11022
moon	-11023
▁hik	-11024
▁Murdoch	-11025
▁fights	-11026
▁Sturridge	-11027
▁classified	-11028
▁Line	-11029
anor	-11030
▁surviving	-11031
iola	-11032
stead	-11033
▁Parents	-11034
▁aunt	-11035
▁virtually	-11036
US	-11037
▁Rest	-11038
▁grade	-11039
▁guidance	-11040
rated	-11041
ommy	-11042
▁fleeing	-11043
▁charities	-11044
oped	-11045
neath	-11046
umping	-11047
▁stance	-11048
▁Toure	-11049
▁Baby	-11050
▁strateg	-11051
▁Baltimore	-11052
Ob	-11053
▁les	-11054
▁Priv	-11055
respons	-11056
broken	-11057
▁selfie	-11058
▁jewellery	-11059
▁communicate	-11060
▁Imp	-11061
▁horm	-11062
▁seal	-11063
▁Samar	-11064
▁Ramsey	-11065
▁Capitol	-11066
▁Lucas	-11067
ensus	-11068
▁Pie	-11069
▁endang	-11070
knapp	-11071
astian	-11072
▁longtime	-11073
Neill	-11074
▁bust	-11075
▁Nicholas	-11076
▁missions	-11077
Today	-11078
▁partly	-11079
▁clar	-11080
emies	-11081
▁coastal	-11082
▁unnamed	-11083
▁donate	-11084
gain	-11085
,000-	-11086
▁smooth	-11087
ortunate	-11088
▁sufficient	-11089
▁foss	-11090
▁Redknapp	-11091
▁fundamental	-11092
▁Rou	-11093
▁Scene	-11094
▁cargo	-11095
▁Tehran	-11096
▁39,	-11097
▁raises	-11098
▁insisting	-11099
▁43,	-11100
otal	-11101
▁Hispan	-11102
fers	-11103
iege	-11104
ifford	-11105
▁Without	-11106
▁Ky	-11107
▁mall	-11108
▁Thames	-11109
igration	-11110
▁theater	-11111
▁$100	-11112
▁flags	-11113
▁spare	-11114
▁freezing	-11115
▁attackers	-11116
▁organs	-11117
▁nursing	-11118
▁suits	-11119
▁nomination	-11120
▁electrical	-11121
▁Kenn	-11122
pit	-11123
rawl	-11124
▁abusing	-11125
▁creatures	-11126
▁72	-11127
▁slept	-11128
▁tipped	-11129
▁academic	-11130
From	-11131
ewhat	-11132
▁doubled	-11133
itious	-11134
▁chemicals	-11135
▁professionals	-11136
say	-11137
▁inev	-11138
▁TM	-11139
alking	-11140
▁ingredients	-11141
▁span	-11142
▁perce	-11143
▁expans	-11144
▁Dak	-11145
▁Joshua	-11146
▁kicking	-11147
▁confidential	-11148
vet	-11149
avez	-11150
▁draft	-11151
▁drones	-11152
▁organis	-11153
▁underwear	-11154
folk	-11155
▁revelations	-11156
▁mortgage	-11157
▁scrutiny	-11158
▁78	-11159
▁Ext	-11160
▁bug	-11161
rawn	-11162
▁2004,	-11163
▁tracked	-11164
▁appealing	-11165
rank	-11166
▁NYPD	-11167
▁tone	-11168
▁weighing	-11169
▁disturbing	-11170
believ	-11171
▁Arena	-11172
▁Coalition	-11173
▁democratic	-11174
▁subsequent	-11175
▁virtual	-11176
▁Christians	-11177
ugs	-11178
▁ET	-11179
▁Moss	-11180
▁bout	-11181
▁aviation	-11182
▁evil	-11183
▁preliminary	-11184
fa	-11185
▁1997	-11186
▁Liberia	-11187
enter	-11188
▁risen	-11189
▁Merkel	-11190
▁Reagan	-11191
▁banking	-11192
By	-11193
mid	-11194
icting	-11195
casters	-11196
▁centuries	-11197
▁indication	-11198
Re	-11199
▁Kiev	-11200
▁unions	-11201
tion	-11202
▁minds	-11203
▁Christine	-11204
sein	-11205
▁Gene	-11206
▁Take	-11207
▁Alonso	-11208
▁cycling	-11209
ensed	-11210
▁lined	-11211
Everyone	-11212
▁context	-11213
▁unaware	-11214
▁stability	-11215
▁transformed	-11216
▁50,	-11217
▁50-	-11218
▁Cre	-11219
▁confused	-11220
▁Esp	-11221
onder	-11222
▁Rogers	-11223
steroid	-11224
▁psychological	-11225
▁gadget	-11226
iy	-11227
ulting	-11228
raught	-11229
▁pants	-11230
apolis	-11231
▁depos	-11232
▁immune	-11233
▁opener	-11234
▁firearms	-11235
▁Alz	-11236
▁2005.	-11237
▁instructions	-11238
ieves	-11239
▁dies	-11240
▁Polish	-11241
▁Investigation	-11242
▁9/11	-11243
▁paedoph	-11244
ingu	-11245
▁runner	-11246
▁33-	-11247
▁tong	-11248
mission	-11249
▁patterns	-11250
▁ash	-11251
▁raw	-11252
▁9,	-11253
▁Bieber	-11254
▁Palestinians	-11255
hend	-11256
▁fleet	-11257
aka	-11258
▁Report	-11259
▁spaces	-11260
▁battled	-11261
▁conceded	-11262
▁substantial	-11263
isp	-11264
▁apologized	-11265
▁infections	-11266
▁Pacqu	-11267
▁charging	-11268
▁Witnesses	-11269
▁epid	-11270
▁Got	-11271
ubarak	-11272
▁jokes	-11273
▁depend	-11274
▁serves	-11275
▁41,	-11276
▁Gas	-11277
▁Samuel	-11278
▁Warner	-11279
▁Reading	-11280
fordshire	-11281
▁ceiling	-11282
scale	-11283
▁prestigious	-11284
▁46,	-11285
▁Prim	-11286
intendent	-11287
▁embarrassing	-11288
▁Chad	-11289
▁barr	-11290
▁portion	-11291
▁Blake	-11292
▁adjust	-11293
▁Stephanie	-11294
▁hij	-11295
▁Norman	-11296
▁67	-11297
icy	-11298
una	-11299
▁54	-11300
ephew	-11301
▁aide	-11302
▁arts	-11303
▁Gunners	-11304
▁32-	-11305
▁Military	-11306
▁sheet	-11307
▁biological	-11308
▁diving	-11309
▁raping	-11310
▁ate	-11311
uccess	-11312
Because	-11313
▁190	-11314
▁rab	-11315
lain	-11316
▁reduction	-11317
▁Zh	-11318
▁vet	-11319
▁Liam	-11320
▁Chavez	-11321
▁bomber	-11322
▁Blues	-11323
▁sealed	-11324
II	-11325
olo	-11326
▁Haram	-11327
▁hugely	-11328
▁latter	-11329
jud	-11330
umm	-11331
▁Kings	-11332
▁accurate	-11333
▁Cho	-11334
being	-11335
▁Cuban	-11336
▁Leone	-11337
▁Fulham	-11338
▁violated	-11339
▁44,	-11340
▁beds	-11341
▁speeds	-11342
▁library	-11343
▁networking	-11344
▁scam	-11345
▁coaching	-11346
▁legitimate	-11347
▁parks	-11348
▁underneath	-11349
▁Fo	-11350
udes	-11351
ulent	-11352
▁frequent	-11353
iler	-11354
▁giants	-11355
▁exception	-11356
▁membership	-11357
▁demonstration	-11358
▁Dise	-11359
▁blonde	-11360
▁prince	-11361
▁residential	-11362
▁cure	-11363
▁remem	-11364
▁Diamond	-11365
▁terminal	-11366
▁dated	-11367
▁Chairman	-11368
rane	-11369
▁Maine	-11370
▁polar	-11371
lu	-11372
ouds	-11373
▁Hind	-11374
▁Again	-11375
▁Pa	-11376
spec	-11377
umps	-11378
▁festive	-11379
Let	-11380
▁demol	-11381
▁haz	-11382
▁canceled	-11383
parents	-11384
▁exceed	-11385
▁starred	-11386
▁Manager	-11387
▁retain	-11388
▁fatally	-11389
▁Hurricane	-11390
▁producers	-11391
▁punch	-11392
▁FC	-11393
▁Writ	-11394
▁Torres	-11395
▁commonly	-11396
ND	-11397
▁removal	-11398
▁thousand	-11399
▁History	-11400
▁unnecess	-11401
▁politically	-11402
▁lone	-11403
▁embrace	-11404
▁overweight	-11405
▁20,000	-11406
▁revenge	-11407
assion	-11408
▁greeted	-11409
▁Mors	-11410
▁Saints	-11411
▁difficulty	-11412
▁preparation	-11413
▁delivering	-11414
▁reunited	-11415
▁Budd	-11416
outheast	-11417
▁academy	-11418
▁Richardson	-11419
▁coup	-11420
▁Division	-11421
▁Fans	-11422
▁Wool	-11423
▁swing	-11424
ometown	-11425
cr	-11426
▁Andrea	-11427
▁Welbeck	-11428
▁precise	-11429
match	-11430
▁Hung	-11431
▁Sold	-11432
▁loans	-11433
▁commissioner	-11434
▁Perth	-11435
eter	-11436
IM	-11437
▁x	-11438
▁Ryder	-11439
▁Alzheimer	-11440
orton	-11441
▁wings	-11442
hal	-11443
▁affidavit	-11444
▁engineers	-11445
▁Nav	-11446
▁lion	-11447
▁Pacquiao	-11448
▁disability	-11449
▁Corp	-11450
▁Berry	-11451
aria	-11452
▁Spani	-11453
rieve	-11454
▁£100	-11455
▁Prize	-11456
urred	-11457
▁Tyler	-11458
▁satisfied	-11459
▁tribunal	-11460
▁4-	-11461
▁Tai	-11462
▁creates	-11463
▁hood	-11464
▁recalls	-11465
▁Conservatives	-11466
▁plain	-11467
▁queen	-11468
▁heritage	-11469
▁Arkansas	-11470
agu	-11471
▁dollar	-11472
munition	-11473
▁engines	-11474
700	-11475
▁64	-11476
▁Ches	-11477
▁mate	-11478
▁Abdullah	-11479
▁manip	-11480
▁update	-11481
▁relating	-11482
▁climbed	-11483
IDS	-11484
ylan	-11485
aran	-11486
▁restored	-11487
▁competitions	-11488
▁swift	-11489
rice	-11490
▁floating	-11491
▁announcing	-11492
▁focusing	-11493
▁governing	-11494
▁pupil	-11495
▁Linda	-11496
▁violations	-11497
▁Full	-11498
▁Stanley	-11499
▁Alice	-11500
▁yacht	-11501
▁gesture	-11502
Bay	-11503
▁respectively	-11504
▁acid	-11505
▁Orange	-11506
▁Through	-11507
▁villages	-11508
▁spends	-11509
▁deserves	-11510
inge	-11511
▁Delhi	-11512
▁Peterson	-11513
▁explicit	-11514
ablo	-11515
▁ownership	-11516
▁desp	-11517
▁Keane	-11518
▁refuse	-11519
▁associate	-11520
▁DC	-11521
▁haul	-11522
▁prescription	-11523
word	-11524
▁Lenn	-11525
▁Norfolk	-11526
▁texts	-11527
▁useful	-11528
Her	-11529
▁Ep	-11530
aganda	-11531
▁purposes	-11532
▁displays	-11533
▁improvement	-11534
▁shoulders	-11535
▁billionaire	-11536
▁campaigners	-11537
▁Lock	-11538
▁publicity	-11539
▁cops	-11540
▁Carroll	-11541
iva	-11542
▁Webb	-11543
▁brace	-11544
▁31-	-11545
▁Within	-11546
zai	-11547
▁fines	-11548
▁expression	-11549
osc	-11550
▁helicopters	-11551
Gen	-11552
adi	-11553
▁spreading	-11554
▁preventing	-11555
▁proportion	-11556
▁Boko	-11557
▁collecting	-11558
▁Maybe	-11559
▁caption	-11560
erie	-11561
▁Durham	-11562
▁sink	-11563
▁Bever	-11564
▁billions	-11565
rae	-11566
▁beside	-11567
▁deciding	-11568
▁behead	-11569
▁Sale	-11570
▁ammunition	-11571
▁CLICK	-11572
▁Mubarak	-11573
▁interrog	-11574
▁schoolgirl	-11575
has	-11576
▁Bear	-11577
▁Shah	-11578
▁pizza	-11579
▁croc	-11580
▁voices	-11581
aman	-11582
izer	-11583
▁Glass	-11584
▁Guinea	-11585
▁travellers	-11586
▁stir	-11587
▁undercover	-11588
▁Eri	-11589
▁Jama	-11590
19	-11591
▁Dian	-11592
▁Imm	-11593
▁Tob	-11594
▁Karl	-11595
▁disciplinary	-11596
▁1996	-11597
▁handgun	-11598
▁Kas	-11599
▁printed	-11600
▁Corps	-11601
▁nephew	-11602
▁Transportation	-11603
elta	-11604
▁finals	-11605
western	-11606
▁rubbish	-11607
▁hometown	-11608
▁suggestion	-11609
▁Gat	-11610
child	-11611
inity	-11612
▁pharm	-11613
▁copies	-11614
▁Interior	-11615
▁Event	-11616
▁abusive	-11617
▁fundraising	-11618
oub	-11619
▁convent	-11620
▁iReport	-11621
▁sophisticated	-11622
asting	-11623
▁pledge	-11624
▁somewhat	-11625
▁Falk	-11626
▁echo	-11627
▁Wigan	-11628
▁loaded	-11629
▁calendar	-11630
▁periods	-11631
ressing	-11632
▁Hudson	-11633
▁bedrooms	-11634
▁Pyong	-11635
▁receives	-11636
▁extension	-11637
▁Harper	-11638
▁Nigerian	-11639
▁universities	-11640
▁Walsh	-11641
▁archae	-11642
▁cosmet	-11643
angel	-11644
▁Bashar	-11645
▁Frances	-11646
▁retailers	-11647
▁WH	-11648
▁18.	-11649
▁vom	-11650
▁icon	-11651
▁Denmark	-11652
En	-11653
▁leak	-11654
▁mourn	-11655
▁devoted	-11656
▁47,	-11657
▁Pap	-11658
▁cared	-11659
ologies	-11660
▁shield	-11661
luded	-11662
▁Homeland	-11663
▁Until	-11664
▁worrying	-11665
▁Federation	-11666
▁habits	-11667
▁indecent	-11668
▁Vik	-11669
▁airpl	-11670
▁Marshall	-11671
▁motorists	-11672
iah	-11673
▁fool	-11674
ricted	-11675
▁trucks	-11676
▁stranded	-11677
▁Organization	-11678
▁ok	-11679
ignment	-11680
nings	-11681
▁invent	-11682
▁landmark	-11683
▁$500	-11684
▁bold	-11685
▁whale	-11686
▁Marathon	-11687
▁pione	-11688
▁signals	-11689
▁checking	-11690
▁Development	-11691
▁PSG	-11692
▁thigh	-11693
▁convince	-11694
SE	-11695
▁Camb	-11696
▁Naz	-11697
▁Border	-11698
▁Neville	-11699
▁legendary	-11700
▁nominated	-11701
▁contribution	-11702
▁tub	-11703
▁compon	-11704
▁photography	-11705
▁pornography	-11706
ancial	-11707
lining	-11708
▁ridiculous	-11709
uers	-11710
▁leaf	-11711
▁decent	-11712
▁Prop	-11713
▁bankrupt	-11714
▁versions	-11715
Most	-11716
icians	-11717
▁Hazard	-11718
▁Jobs	-11719
▁accommodation	-11720
▁frag	-11721
▁Mountain	-11722
▁discussing	-11723
▁5-	-11724
▁pel	-11725
hard	-11726
▁unhappy	-11727
65	-11728
▁authen	-11729
▁Reed	-11730
▁math	-11731
tenance	-11732
▁infamous	-11733
▁acceptable	-11734
▁Adv	-11735
▁Julia	-11736
▁casualties	-11737
▁13.	-11738
▁renov	-11739
▁Dorset	-11740
▁costing	-11741
▁warming	-11742
▁description	-11743
▁balloon	-11744
hop	-11745
ampa	-11746
▁enjoys	-11747
▁opted	-11748
May	-11749
ducted	-11750
ippers	-11751
▁elaborate	-11752
hor	-11753
▁Tax	-11754
▁circle	-11755
▁wheels	-11756
loe	-11757
inding	-11758
▁moral	-11759
▁tooth	-11760
▁elephant	-11761
ubble	-11762
▁Hag	-11763
▁superb	-11764
uthors	-11765
▁quant	-11766
▁muscles	-11767
▁refugee	-11768
▁Bali	-11769
▁Lanka	-11770
▁motive	-11771
there	-11772
▁filing	-11773
▁THE	-11774
▁uncon	-11775
▁airstrikes	-11776
aab	-11777
rera	-11778
▁57	-11779
▁backs	-11780
▁attraction	-11781
▁IT	-11782
rose	-11783
▁Salv	-11784
umbling	-11785
▁shooter	-11786
gener	-11787
▁Pyongyang	-11788
▁excitement	-11789
Con	-11790
▁env	-11791
▁Executive	-11792
▁Beaut	-11793
▁Equ	-11794
▁heated	-11795
▁slaughter	-11796
▁temporarily	-11797
▁95	-11798
▁railway	-11799
PA	-11800
▁creature	-11801
▁Potter	-11802
▁obese	-11803
▁instantly	-11804
▁Schum	-11805
oker	-11806
▁Bald	-11807
▁deck	-11808
▁Kardashian	-11809
▁countryside	-11810
▁uncomfortable	-11811
mons	-11812
▁urgent	-11813
aternity	-11814
omething	-11815
lass	-11816
▁14.	-11817
elesc	-11818
▁Cohen	-11819
▁Norwich	-11820
▁Intelligence	-11821
▁commissioned	-11822
amel	-11823
▁PR	-11824
▁structures	-11825
▁Raj	-11826
▁wash	-11827
▁Melissa	-11828
▁Management	-11829
rient	-11830
▁hill	-11831
▁Ghana	-11832
▁dolph	-11833
▁contribute	-11834
BO	-11835
▁publ	-11836
▁designers	-11837
▁demonstrate	-11838
rising	-11839
▁travelers	-11840
▁wears	-11841
ructive	-11842
▁Pul	-11843
▁ferry	-11844
▁monarch	-11845
▁requirements	-11846
▁Fig	-11847
▁Si	-11848
onies	-11849
▁Arctic	-11850
▁Jeffrey	-11851
▁examine	-11852
▁trailer	-11853
▁encl	-11854
▁speeding	-11855
▁beliefs	-11856
▁viewing	-11857
▁advis	-11858
aha	-11859
▁Jacob	-11860
▁Using	-11861
▁Banks	-11862
▁franchise	-11863
▁tap	-11864
▁gangs	-11865
▁Blackpool	-11866
inted	-11867
▁mart	-11868
▁Living	-11869
▁nerve	-11870
▁asteroid	-11871
▁Pay	-11872
▁Theres	-11873
ori	-11874
▁dock	-11875
Of	-11876
▁phenomenon	-11877
▁Bot	-11878
about	-11879
▁4,000	-11880
▁pills	-11881
itches	-11882
▁Blackburn	-11883
▁belonging	-11884
ghai	-11885
health	-11886
▁Alger	-11887
▁Clarks	-11888
olks	-11889
▁Mom	-11890
▁boom	-11891
▁allegation	-11892
▁sin	-11893
▁Click	-11894
▁decre	-11895
▁fixture	-11896
▁15.	-11897
placed	-11898
▁sweat	-11899
▁cigarette	-11900
threatening	-11901
sa	-11902
opes	-11903
emouth	-11904
▁conducting	-11905
▁unlaw	-11906
▁condol	-11907
▁Rail	-11908
▁helmet	-11909
▁trace	-11910
po	-11911
▁Mes	-11912
▁divers	-11913
▁parliamentary	-11914
▁excessive	-11915
atab	-11916
aines	-11917
▁McN	-11918
▁Bened	-11919
▁broadcaster	-11920
owder	-11921
▁washed	-11922
otes	-11923
▁Richards	-11924
▁transported	-11925
▁+	-11926
▁Lux	-11927
ifications	-11928
race	-11929
▁700	-11930
▁wrist	-11931
▁1.5	-11932
▁Gir	-11933
▁visa	-11934
▁chiefs	-11935
▁cigarettes	-11936
usky	-11937
▁dirty	-11938
▁subjects	-11939
▁Prevention	-11940
▁lorry	-11941
▁Run	-11942
▁Sharon	-11943
▁Command	-11944
▁commemor	-11945
▁Lang	-11946
licted	-11947
▁Jackie	-11948
▁weighs	-11949
▁hosting	-11950
▁stored	-11951
▁thanked	-11952
▁neighboring	-11953
▁researcher	-11954
▁friendship	-11955
▁rumours	-11956
lon	-11957
▁topped	-11958
▁breasts	-11959
▁boarding	-11960
▁hire	-11961
▁2001,	-11962
▁burial	-11963
▁obsc	-11964
▁barrier	-11965
▁retreat	-11966
isive	-11967
▁Rory	-11968
▁2004.	-11969
▁ears	-11970
cillor	-11971
▁Coroner	-11972
▁reviews	-11973
hr	-11974
▁approaching	-11975
▁Buff	-11976
ternal	-11977
▁bronze	-11978
▁spill	-11979
▁circuit	-11980
▁Kob	-11981
celand	-11982
▁silent	-11983
▁conservation	-11984
▁paintings	-11985
gie	-11986
ascus	-11987
▁inaug	-11988
▁Austria	-11989
▁DV	-11990
▁Wi	-11991
▁universe	-11992
▁households	-11993
▁donors	-11994
▁abducted	-11995
▁excuse	-11996
▁scri	-11997
▁lavish	-11998
▁Left	-11999
▁mistaken	-12000
▁observed	-12001
▁determination	-12002
▁IP	-12003
▁unfortunate	-12004
▁detected	-12005
Or	-12006
▁plum	-12007
▁marine	-12008
▁reject	-12009
▁gunshot	-12010
▁testify	-12011
OWN	-12012
▁tube	-12013
▁sample	-12014
▁prosecuting	-12015
▁Magn	-12016
▁Nash	-12017
▁Stef	-12018
iop	-12019
arthy	-12020
ocated	-12021
weg	-12022
ships	-12023
▁Scar	-12024
▁Program	-12025
▁humanity	-12026
▁stranger	-12027
▁centers	-12028
▁depending	-12029
▁(4	-12030
▁champagne	-12031
▁demonstrated	-12032
▁bats	-12033
▁Preston	-12034
sun	-12035
▁Trade	-12036
▁twist	-12037
▁Damascus	-12038
▁Ug	-12039
▁hospitalized	-12040
▁1994	-12041
thouse	-12042
▁Motor	-12043
▁Phillip	-12044
▁sensation	-12045
▁blew	-12046
▁gunmen	-12047
▁Victim	-12048
▁£50	-12049
▁revers	-12050
Me	-12051
▁deserved	-12052
aby	-12053
▁merc	-12054
▁pile	-12055
▁Action	-12056
▁smartphones	-12057
▁Shanghai	-12058
▁Assistant	-12059
▁meets	-12060
▁sacrif	-12061
▁Cant	-12062
▁Slo	-12063
utenant	-12064
▁artificial	-12065
terrorism	-12066
▁Griffith	-12067
▁certific	-12068
▁Pochettino	-12069
adesh	-12070
▁revol	-12071
elligent	-12072
▁generous	-12073
▁accidents	-12074
▁generated	-12075
ozy	-12076
▁happiness	-12077
▁Pas	-12078
great	-12079
usalem	-12080
▁modest	-12081
▁neglig	-12082
▁palace	-12083
▁Iceland	-12084
▁ranging	-12085
▁et	-12086
▁TSA	-12087
ranean	-12088
▁Cox	-12089
▁Pick	-12090
▁enable	-12091
▁resistance	-12092
▁belonged	-12093
▁investigator	-12094
▁AS	-12095
▁supportive	-12096
achers	-12097
▁sou	-12098
▁efficient	-12099
▁achievement	-12100
apper	-12101
▁Dist	-12102
▁audio	-12103
▁lesb	-12104
▁Ecu	-12105
rawling	-12106
▁merely	-12107
▁chamber	-12108
▁Serie	-12109
▁breathe	-12110
▁disputed	-12111
▁Hoff	-12112
▁grandson	-12113
▁emissions	-12114
rina	-12115
▁Susp	-12116
▁53	-12117
▁Hook	-12118
▁Lions	-12119
▁burden	-12120
▁glamorous	-12121
▁76	-12122
▁underway	-12123
▁Detectives	-12124
usc	-12125
pled	-12126
rary	-12127
▁addresses	-12128
▁shoe	-12129
▁stormed	-12130
▁Harvey	-12131
Well	-12132
umper	-12133
▁Coleman	-12134
▁releasing	-12135
cm	-12136
▁aerial	-12137
▁hungry	-12138
mal	-12139
ista	-12140
▁Jill	-12141
ji	-12142
▁fu	-12143
▁separat	-12144
▁differently	-12145
▁euros	-12146
▁reverse	-12147
▁Pam	-12148
arest	-12149
uration	-12150
▁passionate	-12151
▁impose	-12152
▁Middles	-12153
sic	-12154
▁promoted	-12155
ollah	-12156
▁Manning	-12157
gone	-12158
▁delight	-12159
▁gren	-12160
▁Jar	-12161
▁pray	-12162
fair	-12163
▁fiscal	-12164
▁equality	-12165
▁Staffordshire	-12166
-20	-12167
▁Girls	-12168
▁moderate	-12169
▁Jerusalem	-12170
cal	-12171
▁51	-12172
▁Disease	-12173
▁tanks	-12174
pack	-12175
▁Morrison	-12176
heem	-12177
▁fisher	-12178
▁Glenn	-12179
85	-12180
▁Much	-12181
▁lungs	-12182
▁timing	-12183
▁Ki	-12184
▁adventure	-12185
▁Brotherhood	-12186
▁Aj	-12187
▁sod	-12188
▁McCarthy	-12189
▁formation	-12190
cut	-12191
▁Dylan	-12192
▁Wildlife	-12193
▁jaw	-12194
▁Mills	-12195
olutely	-12196
prise	-12197
▁snake	-12198
▁prayer	-12199
▁thrilled	-12200
▁Rig	-12201
▁barrel	-12202
8,000	-12203
▁mild	-12204
▁click	-12205
▁solic	-12206
▁choosing	-12207
▁gig	-12208
▁Design	-12209
▁ladies	-12210
▁secretly	-12211
▁Gw	-12212
▁speaker	-12213
▁donation	-12214
▁constitution	-12215
▁manufacturers	-12216
ET	-12217
▁Dra	-12218
▁narr	-12219
▁Express	-12220
▁Marco	-12221
▁complaining	-12222
sor	-12223
▁privately	-12224
▁ancest	-12225
▁RSP	-12226
hurst	-12227
▁drives	-12228
▁alleges	-12229
bn	-12230
▁Along	-12231
▁protein	-12232
▁Criminal	-12233
▁Inside	-12234
▁ST	-12235
▁switched	-12236
▁Match	-12237
▁premature	-12238
▁Gibson	-12239
resident	-12240
▁Len	-12241
▁Hayes	-12242
iples	-12243
▁Jenkins	-12244
▁instrum	-12245
ifies	-12246
▁drun	-12247
▁lect	-12248
sers	-12249
▁expanded	-12250
uming	-12251
▁Heather	-12252
▁condemn	-12253
awi	-12254
emark	-12255
lects	-12256
▁appoint	-12257
▁Sara	-12258
drop	-12259
▁Vick	-12260
▁confrontation	-12261
iffer	-12262
▁tours	-12263
▁Emp	-12264
▁scare	-12265
▁influential	-12266
▁Championships	-12267
▁permit	-12268
▁prepares	-12269
pot	-12270
▁Alv	-12271
▁spo	-12272
▁gardens	-12273
▁Beth	-12274
▁glory	-12275
▁FDA	-12276
▁Curt	-12277
▁Grey	-12278
▁outdoor	-12279
▁dialogue	-12280
▁precious	-12281
▁wars	-12282
▁siege	-12283
▁costume	-12284
▁complications	-12285
▁1995	-12286
▁Adeb	-12287
▁swall	-12288
▁makers	-12289
aned	-12290
▁Victorian	-12291
▁embarrassed	-12292
▁inspire	-12293
▁Technology	-12294
oft	-12295
▁UKIP	-12296
▁sends	-12297
▁administer	-12298
abwe	-12299
▁shy	-12300
▁63	-12301
▁mysterious	-12302
▁Iron	-12303
▁noting	-12304
▁titled	-12305
only	-12306
▁Yah	-12307
▁Zimb	-12308
founder	-12309
▁ov	-12310
boat	-12311
▁sew	-12312
▁Eddie	-12313
▁inflation	-12314
▁Capt	-12315
▁staged	-12316
▁Marines	-12317
urious	-12318
▁Challen	-12319
empt	-12320
▁DOWN	-12321
▁rall	-12322
▁Rud	-12323
▁Ice	-12324
▁scenario	-12325
▁commented	-12326
▁washing	-12327
▁Clay	-12328
▁Film	-12329
heastern	-12330
16	-12331
▁Half	-12332
▁Malaysian	-12333
▁consideration	-12334
▁48,	-12335
▁guitar	-12336
▁Wallace	-12337
▁measured	-12338
▁Liz	-12339
author	-12340
▁Franklin	-12341
▁Kal	-12342
entry	-12343
▁pave	-12344
▁Hague	-12345
▁stairs	-12346
expl	-12347
omic	-12348
▁Delta	-12349
▁safer	-12350
▁neglect	-12351
▁tongue	-12352
▁Cav	-12353
▁Highway	-12354
▁punished	-12355
▁developers	-12356
▁Bangl	-12357
▁blown	-12358
▁cartoon	-12359
▁Sark	-12360
▁pollution	-12361
▁Robb	-12362
▁Venezuela	-12363
▁Barca	-12364
▁Thank	-12365
▁Unlike	-12366
▁Ru	-12367
▁assumed	-12368
idy	-12369
▁BP	-12370
▁cave	-12371
▁rings	-12372
▁crushed	-12373
igers	-12374
▁philos	-12375
▁Financial	-12376
▁experiencing	-12377
see	-12378
▁Nation	-12379
▁monthly	-12380
▁reconst	-12381
▁Born	-12382
▁strangers	-12383
roe	-12384
ugly	-12385
▁Ecuador	-12386
▁MS	-12387
▁rend	-12388
▁Mey	-12389
▁ninth	-12390
▁fitting	-12391
▁adoption	-12392
ervatory	-12393
▁aspects	-12394
▁Summer	-12395
▁unsuccess	-12396
▁peer	-12397
▁healthcare	-12398
deep	-12399
▁Thanksgiving	-12400
!’	-12401
▁femin	-12402
▁Market	-12403
inos	-12404
▁Zimbabwe	-12405
alez	-12406
▁coal	-12407
▁maker	-12408
▁trousers	-12409
▁transportation	-12410
▁Disc	-12411
▁System	-12412
▁tremend	-12413
▁discharged	-12414
▁Stri	-12415
▁campaigning	-12416
▁maintenance	-12417
▁raids	-12418
▁triple	-12419
▁crashing	-12420
▁Tib	-12421
believable	-12422
▁propaganda	-12423
illas	-12424
▁Wells	-12425
▁lane	-12426
antan	-12427
▁predecess	-12428
dahl	-12429
▁Athlet	-12430
▁valued	-12431
▁astonishing	-12432
amine	-12433
);	-12434
▁Clarkson	-12435
▁Represent	-12436
▁49,	-12437
Shab	-12438
shaw	-12439
▁Engine	-12440
▁ignore	-12441
iago	-12442
▁lips	-12443
▁Nobel	-12444
▁sunshine	-12445
▁bic	-12446
▁sid	-12447
▁Guy	-12448
▁Antar	-12449
rieving	-12450
▁grandparents	-12451
friendly	-12452
backs	-12453
working	-12454
▁Nicolas	-12455
cé	-12456
▁Thor	-12457
▁pleading	-12458
▁Indonesian	-12459
▁inspector	-12460
▁fet	-12461
▁Reds	-12462
▁nude	-12463
▁pedest	-12464
▁McLaren	-12465
▁comprehensive	-12466
▁Wils	-12467
▁examples	-12468
▁py	-12469
ROLL	-12470
▁matching	-12471
▁innocence	-12472
▁understands	-12473
▁73	-12474
▁Cit	-12475
ottage	-12476
▁Sebastian	-12477
upt	-12478
▁provision	-12479
▁orph	-12480
▁reserve	-12481
stock	-12482
▁roots	-12483
▁deputies	-12484
▁ensuring	-12485
▁inch	-12486
AN	-12487
Many	-12488
rique	-12489
stage	-12490
ushes	-12491
▁inmate	-12492
▁integrity	-12493
▁Hem	-12494
▁Eden	-12495
▁Kens	-12496
ggy	-12497
otton	-12498
▁scrap	-12499
sted	-12500
▁eaten	-12501
▁committing	-12502
cony	-12503
▁Bourn	-12504
▁contracted	-12505
▁recommendations	-12506
zb	-12507
abouts	-12508
gender	-12509
▁gut	-12510
▁Portland	-12511
▁relieved	-12512
▁estranged	-12513
ishers	-12514
porary	-12515
▁blanket	-12516
▁tob	-12517
▁essentially	-12518
▁17.	-12519
▁Mahm	-12520
▁annoy	-12521
▁cooperation	-12522
▁Rah	-12523
mith	-12524
▁52,	-12525
▁Pil	-12526
grand	-12527
▁preferred	-12528
▁Sally	-12529
▁visual	-12530
uro	-12531
vol	-12532
▁Brew	-12533
▁rented	-12534
lay	-12535
▁Gem	-12536
▁wand	-12537
▁Looking	-12538
▁Theresa	-12539
▁Past	-12540
▁entrepreneur	-12541
▁connections	-12542
▁institution	-12543
▁34-	-12544
▁Laz	-12545
▁Jake	-12546
instein	-12547
▁Dakota	-12548
▁monitored	-12549
▁Sha	-12550
EP	-12551
inh	-12552
keys	-12553
ozone	-12554
▁juven	-12555
▁Everyone	-12556
▁attendance	-12557
▁overturned	-12558
▁amateur	-12559
▁judicial	-12560
▁Own	-12561
intage	-12562
▁magic	-12563
▁Hob	-12564
▁Tampa	-12565
▁exped	-12566
▁drought	-12567
▁outlets	-12568
▁Heritage	-12569
▁completing	-12570
▁distribution	-12571
▁policeman	-12572
▁Weekly	-12573
▁reminder	-12574
▁AP	-12575
▁Dew	-12576
wegian	-12577
▁stere	-12578
▁prey	-12579
▁relegation	-12580
▁Golf	-12581
▁sadd	-12582
anting	-12583
▁folks	-12584
▁lightning	-12585
▁priest	-12586
▁Pieters	-12587
▁lasting	-12588
alle	-12589
▁2003,	-12590
▁Concer	-12591
▁resume	-12592
▁routes	-12593
▁surely	-12594
stanbul	-12595
▁Natalie	-12596
▁Benedict	-12597
amas	-12598
aton	-12599
▁TMZ	-12600
▁stepping	-12601
▁advocates	-12602
▁citizenship	-12603
▁rapper	-12604
▁balcony	-12605
hers	-12606
▁bodily	-12607
olan	-12608
▁Dame	-12609
▁chasing	-12610
opard	-12611
unity	-12612
▁Close	-12613
▁grocer	-12614
▁Wang	-12615
▁chips	-12616
▁Raheem	-12617
▁premium	-12618
sur	-12619
▁Bryan	-12620
▁bip	-12621
agles	-12622
▁drunken	-12623
▁Final	-12624
▁SCROLL	-12625
▁trash	-12626
▁directors	-12627
fts	-12628
▁eBay	-12629
▁shaking	-12630
sson	-12631
▁evolution	-12632
▁utter	-12633
▁Village	-12634
▁Ellis	-12635
team	-12636
vereign	-12637
▁sharks	-12638
▁Istanbul	-12639
▁62	-12640
▁lod	-12641
▁Dawn	-12642
▁epic	-12643
▁marriages	-12644
▁practical	-12645
iffe	-12646
▁cruelty	-12647
▁Orig	-12648
anches	-12649
▁Hussein	-12650
▁Whether	-12651
▁,	-12652
▁hub	-12653
turn	-12654
iri	-12655
▁Omar	-12656
▁Spaniard	-12657
spoken	-12658
▁Which	-12659
▁laptop	-12660
▁venture	-12661
offs	-12662
▁IRS	-12663
eston	-12664
aments	-12665
▁Gran	-12666
letcher	-12667
▁backlash	-12668
gi	-12669
▁advocate	-12670
▁clever	-12671
▁convert	-12672
▁Nep	-12673
▁hardest	-12674
▁Claim	-12675
▁trusted	-12676
▁Ele	-12677
▁jumps	-12678
▁compromise	-12679
acting	-12680
▁Pictures	-12681
she	-12682
rock	-12683
ulus	-12684
▁chann	-12685
▁Election	-12686
▁rehabilitation	-12687
ige	-12688
▁ballot	-12689
▁Point	-12690
aughed	-12691
▁outfits	-12692
zi	-12693
ski	-12694
▁Joan	-12695
▁premier	-12696
▁breakthrough	-12697
nie	-12698
uma	-12699
▁gates	-12700
▁cours	-12701
▁gradu	-12702
iterranean	-12703
ripp	-12704
acles	-12705
▁cried	-12706
▁restricted	-12707
plus	-12708
nia	-12709
▁woods	-12710
▁Merc	-12711
itudes	-12712
▁emerge	-12713
▁lighting	-12714
▁Rab	-12715
▁tobacco	-12716
▁isolation	-12717
▁neut	-12718
▁shorts	-12719
▁strategic	-12720
▁considerable	-12721
▁VA	-12722
▁Ramos	-12723
▁reacted	-12724
▁manufacturing	-12725
▁maps	-12726
▁Moroc	-12727
▁reckless	-12728
▁comic	-12729
▁planets	-12730
▁Coul	-12731
▁scary	-12732
▁Sandusky	-12733
▁BMW	-12734
otype	-12735
normal	-12736
▁applaud	-12737
▁believing	-12738
▁Revolution	-12739
▁decorated	-12740
▁Sullivan	-12741
impse	-12742
▁pensioner	-12743
▁foster	-12744
▁prosecuted	-12745
▁Set	-12746
▁Dark	-12747
▁Neither	-12748
▁assaults	-12749
▁gam	-12750
▁raided	-12751
▁handing	-12752
▁expense	-12753
▁Hand	-12754
▁programmes	-12755
▁Lim	-12756
▁Sochi	-12757
▁affecting	-12758
▁Britt	-12759
▁bonus	-12760
▁Katherine	-12761
▁affordable	-12762
▁Wilshere	-12763
▁intimate	-12764
▁Bournemouth	-12765
▁theatre	-12766
▁renowned	-12767
▁laser	-12768
6,000	-12769
▁nicknamed	-12770
▁keys	-12771
▁alien	-12772
▁crocod	-12773
itter	-12774
kward	-12775
▁Change	-12776
▁provoc	-12777
▁dug	-12778
proof	-12779
▁Sergeant	-12780
▁58	-12781
▁unnecessary	-12782
▁datab	-12783
▁chains	-12784
▁Hammond	-12785
▁Pearson	-12786
▁passage	-12787
rob	-12788
▁rubber	-12789
teen	-12790
▁myth	-12791
▁Nicola	-12792
▁volley	-12793
▁MI	-12794
▁dent	-12795
▁pros	-12796
▁unfortunately	-12797
▁Storm	-12798
▁Pipp	-12799
▁rage	-12800
▁poisoning	-12801
▁teammates	-12802
▁equipped	-12803
heart	-12804
▁imprisonment	-12805
▁Mediterranean	-12806
enk	-12807
▁Rain	-12808
▁Lindsay	-12809
aste	-12810
▁authors	-12811
▁Anyone	-12812
▁embark	-12813
▁hacked	-12814
▁reflected	-12815
unct	-12816
▁Hugh	-12817
▁catching	-12818
▁£2.	-12819
jection	-12820
▁laughed	-12821
▁concentration	-12822
▁HS	-12823
orable	-12824
▁Hat	-12825
▁duck	-12826
▁Shane	-12827
▁principle	-12828
▁51,	-12829
▁Bergdahl	-12830
▁sovereign	-12831
vas	-12832
▁merch	-12833
▁departments	-12834
▁1,500	-12835
▁glimpse	-12836
fare	-12837
▁Osama	-12838
▁clouds	-12839
▁blasted	-12840
▁teammate	-12841
▁conservatives	-12842
▁tension	-12843
▁coffin	-12844
▁arrangements	-12845
▁35-	-12846
▁clues	-12847
▁disrupt	-12848
▁travels	-12849
▁ally	-12850
abad	-12851
▁derby	-12852
▁shirts	-12853
▁suburban	-12854
▁partially	-12855
otion	-12856
▁deeper	-12857
▁reaches	-12858
▁horrified	-12859
▁homosexual	-12860
net	-12861
▁Rosie	-12862
▁postp	-12863
▁expansion	-12864
▁gene	-12865
▁reviewed	-12866
▁autom	-12867
Ex	-12868
▁instant	-12869
▁confusion	-12870
isha	-12871
▁sheep	-12872
▁Zucker	-12873
▁agric	-12874
▁weird	-12875
Although	-12876
▁wrongdoing	-12877
iors	-12878
wind	-12879
▁ambitious	-12880
amped	-12881
▁floors	-12882
▁Ka	-12883
▁poured	-12884
▁breakdown	-12885
▁Histor	-12886
▁Place	-12887
▁Son	-12888
onnie	-12889
▁scholar	-12890
▁elephants	-12891
▁SA	-12892
▁eleg	-12893
▁Taiwan	-12894
▁careers	-12895
▁centres	-12896
etsk	-12897
▁Lis	-12898
▁steep	-12899
▁Patrol	-12900
▁tropical	-12901
uter	-12902
▁anchor	-12903
▁doubts	-12904
east	-12905
onel	-12906
▁volume	-12907
▁exercises	-12908
▁68	-12909
▁argues	-12910
▁nod	-12911
▁peers	-12912
▁Floyd	-12913
▁Target	-12914
▁earnings	-12915
▁discipline	-12916
▁prost	-12917
▁disappointment	-12918
▁Ta	-12919
▁overhaul	-12920
▁cabinet	-12921
▁Constitution	-12922
▁pad	-12923
▁Horn	-12924
▁shipping	-12925
▁competitors	-12926
▁Given	-12927
▁*	-12928
mand	-12929
range	-12930
ilies	-12931
”.	-12932
▁Carn	-12933
▁Viol	-12934
▁Carney	-12935
▁Fletcher	-12936
▁strengthen	-12937
erts	-12938
▁Cov	-12939
▁Burg	-12940
▁grid	-12941
▁Finally	-12942
▁chapter	-12943
▁Jol	-12944
▁pleasure	-12945
▁apologize	-12946
iffs	-12947
▁quake	-12948
▁Madison	-12949
▁Students	-12950
▁navy	-12951
antanamo	-12952
▁remorse	-12953
▁tougher	-12954
eded	-12955
hydr	-12956
▁Bil	-12957
▁Trump	-12958
▁RSPCA	-12959
ammar	-12960
▁renewed	-12961
▁Rover	-12962
▁inspection	-12963
▁Salt	-12964
▁grip	-12965
▁2003.	-12966
▁Woman	-12967
▁indicted	-12968
▁manufacturer	-12969
▁assured	-12970
▁nominee	-12971
Jo	-12972
▁vary	-12973
▁Search	-12974
▁dealer	-12975
▁strongest	-12976
▁Beyon	-12977
▁gloves	-12978
▁banning	-12979
pered	-12980
▁developments	-12981
Once	-12982
beaten	-12983
▁cinema	-12984
▁generate	-12985
▁trademark	-12986
powered	-12987
▁admission	-12988
▁unarmed	-12989
▁Norwegian	-12990
▁Fun	-12991
▁buzz	-12992
▁knees	-12993
bishop	-12994
listed	-12995
▁adequ	-12996
▁wardro	-12997
▁insight	-12998
▁Carr	-12999
▁flaw	-13000
▁Croatia	-13001
▁Fif	-13002
▁graduated	-13003
▁organisations	-13004
ophob	-13005
yers	-13006
▁euro	-13007
▁Andrews	-13008
Br	-13009
▁Doz	-13010
▁Crimea	-13011
▁Amnesty	-13012
▁chased	-13013
▁rubble	-13014
▁Sometimes	-13015
▁detainees	-13016
▁suggestions	-13017
OL	-13018
▁1992	-13019
▁Song	-13020
▁lied	-13021
▁photographers	-13022
sign	-13023
▁Rica	-13024
▁convention	-13025
hift	-13026
▁stroll	-13027
gro	-13028
itzer	-13029
▁defenders	-13030
▁observers	-13031
▁Guantanamo	-13032
▁Page	-13033
▁plunged	-13034
▁Cour	-13035
▁pursuit	-13036
EG	-13037
alymp	-13038
▁firearm	-13039
▁engaging	-13040
▁Unfortunately	-13041
▁Craw	-13042
▁thus	-13043
▁shutdown	-13044
▁Esc	-13045
atoes	-13046
▁psychiatric	-13047
rise	-13048
▁Suffolk	-13049
▁romance	-13050
uced	-13051
▁Bin	-13052
▁humil	-13053
▁u	-13054
▁submar	-13055
▁Number	-13056
▁authentic	-13057
▁negotiate	-13058
.”	-13059
▁credited	-13060
▁musician	-13061
▁survivor	-13062
▁Kensington	-13063
▁Kaz	-13064
▁Pel	-13065
▁serial	-13066
▁goodbye	-13067
▁cater	-13068
▁Dems	-13069
▁Jail	-13070
ihanna	-13071
▁Walter	-13072
▁condolences	-13073
dem	-13074
▁Liberty	-13075
ea	-13076
▁cage	-13077
▁posters	-13078
18	-13079
▁WW	-13080
▁Room	-13081
▁consistently	-13082
▁180	-13083
taking	-13084
▁Indust	-13085
▁matched	-13086
▁Vi	-13087
▁Firef	-13088
kill	-13089
ogram	-13090
▁Wend	-13091
▁tale	-13092
▁vocal	-13093
▁tables	-13094
▁enemies	-13095
▁placing	-13096
▁Conference	-13097
rics	-13098
▁stones	-13099
▁retailer	-13100
▁tsun	-13101
size	-13102
▁killers	-13103
▁insurgents	-13104
umin	-13105
▁Lie	-13106
▁SNP	-13107
▁Pietersen	-13108
▁Rugby	-13109
▁Felipe	-13110
▁steady	-13111
▁interim	-13112
▁Anti	-13113
▁sorts	-13114
▁epidemic	-13115
▁solutions	-13116
▁sizes	-13117
▁updates	-13118
▁Fast	-13119
▁Donetsk	-13120
▁Baron	-13121
inction	-13122
▁Chambers	-13123
▁establishment	-13124
▁unl	-13125
throp	-13126
▁Danish	-13127
▁Etihad	-13128
shaped	-13129
▁feedback	-13130
▁respects	-13131
▁updated	-13132
uri	-13133
ardyce	-13134
▁cockpit	-13135
got	-13136
▁Fat	-13137
▁buses	-13138
▁Lennon	-13139
▁debts	-13140
▁bullied	-13141
▁lifting	-13142
▁threaten	-13143
▁Mul	-13144
Brien	-13145
▁Taking	-13146
........	-13147
▁Rolling	-13148
▁deton	-13149
▁Bundes	-13150
▁unemployed	-13151
▁Carlo	-13152
▁ultra	-13153
▁destro	-13154
▁realistic	-13155
ikes	-13156
▁mainstream	-13157
fi	-13158
▁Body	-13159
▁employer	-13160
▁occupied	-13161
▁preserve	-13162
▁internation	-13163
ricia	-13164
▁perceived	-13165
▁Pic	-13166
▁rit	-13167
3,000	-13168
▁skill	-13169
▁principles	-13170
▁whereabouts	-13171
▁Allardyce	-13172
▁intelligent	-13173
zo	-13174
conf	-13175
▁pays	-13176
▁phrase	-13177
▁whenever	-13178
▁Ashton	-13179
▁Workers	-13180
▁thieves	-13181
▁prostitution	-13182
▁Visit	-13183
▁Gonzalez	-13184
▁Reports	-13185
▁shotgun	-13186
uns	-13187
white	-13188
▁sells	-13189
▁fib	-13190
▁1993	-13191
▁Early	-13192
▁Shiite	-13193
▁regulation	-13194
otta	-13195
▁Verm	-13196
▁ruined	-13197
▁suitable	-13198
▁FAA	-13199
▁preced	-13200
▁endangered	-13201
▁$9	-13202
▁2020	-13203
▁Brig	-13204
▁Paula	-13205
▁immigrant	-13206
▁errors	-13207
▁sweeping	-13208
▁assume	-13209
▁reflects	-13210
▁Kle	-13211
shore	-13212
▁rang	-13213
▁sung	-13214
▁heroes	-13215
▁unpaid	-13216
▁Isa	-13217
▁pursuing	-13218
celotti	-13219
attering	-13220
ENT	-13221
▁shelves	-13222
▁Joel	-13223
▁dele	-13224
▁autism	-13225
▁Kenneth	-13226
▁cemetery	-13227
▁extradition	-13228
▁array	-13229
▁reserv	-13230
▁Break	-13231
Ad	-13232
▁rice	-13233
▁Ports	-13234
▁deceased	-13235
new	-13236
▁horn	-13237
▁(5	-13238
▁Aviation	-13239
▁specially	-13240
sky	-13241
▁Teen	-13242
▁Oprah	-13243
▁£100,000	-13244
eled	-13245
▁skies	-13246
▁steam	-13247
▁remembers	-13248
▁exists	-13249
▁Tommy	-13250
▁countless	-13251
▁destinations	-13252
nest	-13253
change	-13254
▁30,000	-13255
CO	-13256
cor	-13257
▁Hey	-13258
▁medium	-13259
▁Romania	-13260
hester	-13261
ourage	-13262
▁Dow	-13263
▁Nico	-13264
▁Plus	-13265
manuel	-13266
▁valid	-13267
▁Rihanna	-13268
▁resolved	-13269
▁anonymity	-13270
▁Gove	-13271
▁comet	-13272
▁Dublin	-13273
▁miracle	-13274
never	-13275
▁semif	-13276
▁Johnny	-13277
▁Have	-13278
lav	-13279
home	-13280
▁guilt	-13281
▁councils	-13282
▁traditionally	-13283
ieu	-13284
▁Winston	-13285
rin	-13286
▁gonna	-13287
▁prank	-13288
otted	-13289
▁Francois	-13290
▁Ancelotti	-13291
liga	-13292
▁toss	-13293
▁pressed	-13294
▁BT	-13295
▁dimin	-13296
▁Sarkozy	-13297
from	-13298
▁gre	-13299
▁compassion	-13300
quer	-13301
▁topic	-13302
hole	-13303
▁seeks	-13304
▁primarily	-13305
deme	-13306
▁Moon	-13307
psy	-13308
4,000	-13309
▁Vett	-13310
▁Geoff	-13311
▁drowned	-13312
▁quarters	-13313
uis	-13314
▁Kier	-13315
▁manif	-13316
▁subway	-13317
▁spiritual	-13318
▁53,	-13319
▁fluid	-13320
▁Churchill	-13321
49	-13322
▁bunch	-13323
husband	-13324
▁rans	-13325
hetor	-13326
▁dive	-13327
▁50,000	-13328
▁Kam	-13329
▁identical	-13330
▁Unit	-13331
▁Catal	-13332
▁bargain	-13333
hit	-13334
oser	-13335
▁assassination	-13336
▁por	-13337
▁Holy	-13338
iggins	-13339
ussian	-13340
▁gaining	-13341
▁Mata	-13342
▁None	-13343
▁assisted	-13344
▁episodes	-13345
▁Political	-13346
holders	-13347
▁powder	-13348
acer	-13349
▁Eug	-13350
▁mug	-13351
▁plates	-13352
▁momentum	-13353
ract	-13354
▁wives	-13355
▁Factor	-13356
▁dre	-13357
▁patch	-13358
▁Somali	-13359
▁sensors	-13360
▁spectators	-13361
▁refund	-13362
▁permanently	-13363
arn	-13364
▁cro	-13365
▁breed	-13366
▁accompany	-13367
erek	-13368
iciency	-13369
▁£1,000	-13370
▁Montana	-13371
▁tan	-13372
▁gradually	-13373
▁Cart	-13374
▁Fried	-13375
▁Muham	-13376
▁identification	-13377
▁advances	-13378
▁Bundesliga	-13379
Go	-13380
▁Nixon	-13381
▁Garner	-13382
jad	-13383
▁topp	-13384
▁maintains	-13385
▁successive	-13386
geon	-13387
after	-13388
trick	-13389
▁Kend	-13390
▁farmer	-13391
▁reactions	-13392
ulum	-13393
▁Reyn	-13394
▁occurs	-13395
▁Iss	-13396
▁Palm	-13397
▁inspectors	-13398
▁Beh	-13399
▁Tibet	-13400
▁incent	-13401
enberg	-13402
▁Valentine	-13403
aku	-13404
oyle	-13405
▁channels	-13406
▁introduction	-13407
▁Smart	-13408
▁homeown	-13409
▁pope	-13410
iosity	-13411
reated	-13412
▁2001.	-13413
▁Cheryl	-13414
▁makeshift	-13415
game	-13416
▁Ozil	-13417
▁distraught	-13418
▁Occ	-13419
▁Pippa	-13420
▁flies	-13421
extreme	-13422
usterity	-13423
▁secrets	-13424
▁tributes	-13425
▁displaced	-13426
▁reluctant	-13427
▁outp	-13428
▁Berks	-13429
icating	-13430
▁Glen	-13431
▁boxer	-13432
▁rockets	-13433
▁5.5	-13434
▁lugg	-13435
▁richest	-13436
▁notified	-13437
▁Peninsula	-13438
htag	-13439
LC	-13440
too	-13441
▁chip	-13442
leading	-13443
▁Element	-13444
▁sympathy	-13445
kind	-13446
parts	-13447
▁absor	-13448
▁filling	-13449
markets	-13450
▁hashtag	-13451
eries	-13452
ucrative	-13453
▁hackers	-13454
eness	-13455
▁whales	-13456
▁Further	-13457
▁revelation	-13458
bled	-13459
▁Rut	-13460
▁Germans	-13461
▁improvements	-13462
▁cere	-13463
▁dictator	-13464
▁Belf	-13465
▁Math	-13466
▁rhetor	-13467
▁Frenchman	-13468
▁buff	-13469
▁Budget	-13470
▁Paralymp	-13471
▁philosoph	-13472
▁presidents	-13473
▁91	-13474
▁pir	-13475
▁Travis	-13476
▁logo	-13477
▁£12	-13478
▁sailing	-13479
▁puppy	-13480
▁Dozens	-13481
▁Private	-13482
▁corporation	-13483
",	-13484
▁solo	-13485
▁Yahoo	-13486
▁draws	-13487
▁labelled	-13488
▁Move	-13489
had	-13490
quez	-13491
▁Windsor	-13492
▁Dim	-13493
▁Doug	-13494
▁dirt	-13495
▁tribal	-13496
▁lucrative	-13497
mel	-13498
▁Shin	-13499
▁administrative	-13500
hot	-13501
▁soap	-13502
ppo	-13503
▁54,	-13504
stop	-13505
▁19.	-13506
▁Fell	-13507
learly	-13508
▁Hispanic	-13509
▁59	-13510
▁hid	-13511
▁stark	-13512
▁secondary	-13513
kok	-13514
▁sect	-13515
▁rebuild	-13516
▁Corporation	-13517
▁Mersey	-13518
▁submit	-13519
▁gambling	-13520
▁69	-13521
▁credits	-13522
▁adap	-13523
▁tire	-13524
▁aspect	-13525
RI	-13526
▁mour	-13527
▁Fisher	-13528
▁overwhelmed	-13529
avan	-13530
oppers	-13531
▁intox	-13532
▁Kenyan	-13533
▁Eventually	-13534
vious	-13535
▁Brent	-13536
onymous	-13537
seen	-13538
oween	-13539
▁workplace	-13540
cle	-13541
▁2002,	-13542
▁slide	-13543
▁convoy	-13544
▁courses	-13545
▁populations	-13546
fly	-13547
unes	-13548
urches	-13549
▁blocking	-13550
▁premiere	-13551
▁operators	-13552
▁drum	-13553
▁sheer	-13554
▁floods	-13555
▁treats	-13556
far	-13557
▁Chi	-13558
party	-13559
▁flower	-13560
▁finances	-13561
girlfriend	-13562
▁requiring	-13563
▁occasionally	-13564
▁tsunami	-13565
efin	-13566
▁injection	-13567
EAL	-13568
speed	-13569
▁stays	-13570
▁comply	-13571
▁pistol	-13572
▁surgeons	-13573
▁contractor	-13574
▁tortured	-13575
▁Cheshire	-13576
acent	-13577
▁fails	-13578
▁proving	-13579
▁Portsmouth	-13580
▁astronauts	-13581
▁optimistic	-13582
▁escorted	-13583
▁Drag	-13584
▁thunder	-13585
▁Main	-13586
▁Boxing	-13587
▁Celebrity	-13588
▁distributed	-13589
erable	-13590
▁lottery	-13591
▁20.	-13592
err	-13593
▁modelling	-13594
▁anticipated	-13595
▁Bahrain	-13596
▁Cyr	-13597
▁Blood	-13598
▁dispos	-13599
▁diverse	-13600
▁Gregory	-13601
▁acquitted	-13602
sub	-13603
▁hunger	-13604
▁Wa	-13605
fted	-13606
▁absent	-13607
▁indicates	-13608
▁northeast	-13609
▁Kur	-13610
▁sights	-13611
▁bearing	-13612
▁dealers	-13613
itans	-13614
▁Money	-13615
▁linger	-13616
▁oppose	-13617
ST	-13618
anson	-13619
▁inquiries	-13620
▁Ze	-13621
marks	-13622
▁Come	-13623
▁brows	-13624
▁Raymond	-13625
▁Dod	-13626
▁Hut	-13627
▁Tah	-13628
▁Pitts	-13629
▁Alliance	-13630
▁Timothy	-13631
coni	-13632
hell	-13633
▁km	-13634
▁Floren	-13635
▁lovers	-13636
▁Assembly	-13637
▁umb	-13638
string	-13639
▁awkward	-13640
▁cyclist	-13641
▁Maid	-13642
▁Jesse	-13643
▁defined	-13644
rained	-13645
unders	-13646
yanmar	-13647
▁Guardiola	-13648
inness	-13649
▁runners	-13650
▁Make	-13651
▁briefing	-13652
▁nonprofit	-13653
ulted	-13654
▁fossil	-13655
▁Salmond	-13656
▁firmly	-13657
▁Da	-13658
▁sticks	-13659
big	-13660
embled	-13661
▁Lance	-13662
▁Vettel	-13663
▁persuade	-13664
▁supervis	-13665
▁developer	-13666
▁brush	-13667
▁joins	-13668
▁surfaced	-13669
nut	-13670
▁Gardner	-13671
▁Ruth	-13672
▁Mang	-13673
▁recl	-13674
▁prompt	-13675
▁educational	-13676
▁sounded	-13677
▁Amendment	-13678
EL	-13679
qual	-13680
atile	-13681
▁harmful	-13682
▁luggage	-13683
▁Dia	-13684
ungle	-13685
Shabaab	-13686
▁counterparts	-13687
arming	-13688
▁audiences	-13689
ollar	-13690
▁Aleppo	-13691
▁unbeaten	-13692
▁Berkshire	-13693
essa	-13694
▁Paulo	-13695
▁Monica	-13696
▁Getting	-13697
▁neighbourhood	-13698
eption	-13699
▁layer	-13700
▁Ethiop	-13701
▁volcano	-13702
▁victories	-13703
omo	-13704
▁PGA	-13705
▁irre	-13706
▁Halloween	-13707
who	-13708
▁rh	-13709
lease	-13710
▁Foley	-13711
▁worries	-13712
▁Bangladesh	-13713
▁granddaughter	-13714
▁mandatory	-13715
▁Wr	-13716
▁loot	-13717
▁Amber	-13718
▁brains	-13719
▁contents	-13720
▁2-	-13721
lamm	-13722
▁gains	-13723
▁Please	-13724
▁Bangkok	-13725
▁Colombian	-13726
▁dignity	-13727
Americans	-13728
▁Janet	-13729
▁withdrawn	-13730
▁documented	-13731
▁Aberde	-13732
▁vib	-13733
▁Self	-13734
▁appalling	-13735
▁replacing	-13736
▁shattered	-13737
▁tremendous	-13738
▁melt	-13739
▁suite	-13740
core	-13741
▁Jun	-13742
▁successor	-13743
backed	-13744
▁spree	-13745
controlled	-13746
ems	-13747
▁GPS	-13748
▁bowl	-13749
▁princess	-13750
abi	-13751
▁Myanmar	-13752
ayor	-13753
habi	-13754
▁ugly	-13755
▁Congo	-13756
▁Rush	-13757
▁invested	-13758
asant	-13759
▁yoga	-13760
▁Sandra	-13761
▁cheating	-13762
▁55,	-13763
goers	-13764
▁fict	-13765
▁joking	-13766
▁pipe	-13767
▁cardiac	-13768
▁incl	-13769
▁mounted	-13770
▁Zuckerberg	-13771
▁unbelievable	-13772
▁collective	-13773
▁contaminated	-13774
iox	-13775
orie	-13776
▁Kid	-13777
▁landl	-13778
▁purple	-13779
▁broader	-13780
▁Controvers	-13781
▁74	-13782
▁northwest	-13783
▁Chuck	-13784
▁Bud	-13785
▁Mik	-13786
kee	-13787
▁Din	-13788
▁1930	-13789
▁Hert	-13790
▁Ground	-13791
▁nest	-13792
▁bands	-13793
▁Century	-13794
▁visitor	-13795
▁DVD	-13796
▁mast	-13797
▁misdeme	-13798
aires	-13799
▁trends	-13800
▁upstairs	-13801
▁affection	-13802
ugar	-13803
▁Enrique	-13804
▁plummet	-13805
tech	-13806
▁Sac	-13807
etary	-13808
▁Kabul	-13809
▁Appeal	-13810
▁dancer	-13811
ellect	-13812
▁diversity	-13813
▁Fu	-13814
iotics	-13815
▁Novak	-13816
▁hiring	-13817
▁Elementary	-13818
▁Chester	-13819
▁36-	-13820
▁thief	-13821
▁Bulger	-13822
▁pund	-13823
verts	-13824
▁Derek	-13825
▁Johan	-13826
▁acknowledge	-13827
pound	-13828
illery	-13829
▁Youth	-13830
▁Camilla	-13831
▁instructor	-13832
nell	-13833
utor	-13834
▁masc	-13835
▁Seoul	-13836
▁Springs	-13837
▁happier	-13838
▁vicious	-13839
▁tu	-13840
steps	-13841
▁caut	-13842
▁Bible	-13843
▁stating	-13844
▁Cathedral	-13845
▁traumatic	-13846
insp	-13847
ogen	-13848
▁Wilts	-13849
uba	-13850
ounge	-13851
claimed	-13852
▁Dawson	-13853
▁Fraser	-13854
▁troubles	-13855
engu	-13856
▁Lav	-13857
▁Od	-13858
▁pond	-13859
▁limbs	-13860
▁Cambod	-13861
▁quietly	-13862
▁Ministers	-13863
▁accountable	-13864
Who	-13865
▁Sheikh	-13866
▁vintage	-13867
▁distinctive	-13868
raud	-13869
ocial	-13870
arting	-13871
ctuary	-13872
written	-13873
▁abandon	-13874
▁amongst	-13875
▁Ambassador	-13876
▁Band	-13877
▁aisle	-13878
▁Magazine	-13879
▁deported	-13880
▁fractured	-13881
▁Blas	-13882
▁eurozone	-13883
ealous	-13884
▁Series	-13885
▁Ton	-13886
▁fert	-13887
▁Adela	-13888
▁Logan	-13889
▁dishes	-13890
elescope	-13891
▁£10,000	-13892
▁expanding	-13893
▁bay	-13894
▁Borussia	-13895
leen	-13896
ffic	-13897
▁fox	-13898
▁bang	-13899
▁Studies	-13900
▁approaches	-13901
▁Mali	-13902
▁Rams	-13903
▁operates	-13904
oto	-13905
ovich	-13906
▁Mend	-13907
ronics	-13908
agg	-13909
chester	-13910
coon	-13911
▁Passengers	-13912
▁culp	-13913
Russian	-13914
▁qualifier	-13915
▁Dhabi	-13916
▁Medicine	-13917
onga	-13918
▁Mach	-13919
▁allege	-13920
▁Miranda	-13921
▁tattoos	-13922
▁exchanged	-13923
ieties	-13924
▁Kenny	-13925
▁Brandon	-13926
▁Protesters	-13927
some	-13928
▁greatly	-13929
▁Jet	-13930
▁Diane	-13931
▁reminded	-13932
▁weakness	-13933
oop	-13934
▁Sue	-13935
▁£15	-13936
▁Small	-13937
▁ditch	-13938
gically	-13939
▁knives	-13940
dep	-13941
▁mock	-13942
▁throne	-13943
7,000	-13944
▁Lily	-13945
▁freeze	-13946
quet	-13947
▁Fitz	-13948
▁advisers	-13949
▁Wo	-13950
▁fancy	-13951
▁flats	-13952
▁rides	-13953
▁Twenty	-13954
▁actively	-13955
▁portrayed	-13956
▁Photographer	-13957
▁3-2	-13958
▁Kil	-13959
▁uprising	-13960
▁certificate	-13961
omer	-13962
▁fond	-13963
ainted	-13964
▁imper	-13965
▁Shortly	-13966
▁executions	-13967
▁paedophile	-13968
print	-13969
▁gunfire	-13970
▁fireworks	-13971
▁Records	-13972
▁rider	-13973
▁riders	-13974
▁deer	-13975
▁robust	-13976
ammy	-13977
▁Cah	-13978
▁Isle	-13979
▁Russians	-13980
▁intervene	-13981
▁Must	-13982
▁senators	-13983
gom	-13984
sterdam	-13985
▁escort	-13986
▁$100,000	-13987
NS	-13988
▁Jur	-13989
▁Sak	-13990
▁Consum	-13991
▁Tray	-13992
▁crowded	-13993
andy	-13994
▁4-0	-13995
▁Adelaide	-13996
▁interpret	-13997
AP	-13998
CE	-13999
▁famed	-14000
▁repro	-14001
▁Reuters	-14002
▁singles	-14003
▁stuffed	-14004
flight	-14005
incere	-14006
▁motivation	-14007
via	-14008
ilee	-14009
arency	-14010
▁Burton	-14011
▁medics	-14012
▁Ecc	-14013
▁Bird	-14014
▁handbag	-14015
gue	-14016
oppy	-14017
▁junk	-14018
▁200,000	-14019
▁anxious	-14020
brough	-14021
ucked	-14022
▁brick	-14023
▁jewel	-14024
▁males	-14025
▁straw	-14026
▁belongings	-14027
▁battered	-14028
rot	-14029
ulu	-14030
world	-14031
▁farms	-14032
21	-14033
▁ly	-14034
▁Prior	-14035
▁sheets	-14036
▁capabilities	-14037
eria	-14038
urbs	-14039
▁Fish	-14040
▁frank	-14041
24	-14042
▁powered	-14043
▁conventional	-14044
Those	-14045
arity	-14046
▁Titan	-14047
running	-14048
amps	-14049
▁wra	-14050
▁tiger	-14051
century	-14052
▁outraged	-14053
▁Merseyside	-14054
▁Balls	-14055
▁Worth	-14056
▁McCart	-14057
▁aides	-14058
▁simpl	-14059
▁embarrassment	-14060
inked	-14061
▁sooner	-14062
▁organic	-14063
▁Heb	-14064
ocaust	-14065
▁buyer	-14066
inis	-14067
▁okay	-14068
▁boarded	-14069
▁Mohammad	-14070
▁Patriots	-14071
▁exclusively	-14072
▁Jenny	-14073
▁Arrest	-14074
▁racially	-14075
Can	-14076
alid	-14077
▁$30	-14078
▁Thorn	-14079
▁riots	-14080
▁Curtis	-14081
▁providers	-14082
▁recruitment	-14083
▁implications	-14084
▁sidew	-14085
▁Windows	-14086
▁depends	-14087
▁premises	-14088
bage	-14089
▁Earl	-14090
ancies	-14091
lusconi	-14092
▁robbed	-14093
▁Side	-14094
▁consp	-14095
▁Sources	-14096
haw	-14097
▁Shadow	-14098
▁unlawful	-14099
▁Lor	-14100
organ	-14101
▁List	-14102
rate	-14103
▁2.5	-14104
▁Reb	-14105
▁2016.	-14106
▁yield	-14107
▁depressed	-14108
▁Between	-14109
▁fascinating	-14110
hero	-14111
▁arra	-14112
▁nursery	-14113
anim	-14114
▁grat	-14115
▁Joint	-14116
▁spine	-14117
▁Butler	-14118
▁finest	-14119
▁Isab	-14120
▁Ivory	-14121
▁Arnold	-14122
▁consumed	-14123
did	-14124
▁Lawson	-14125
▁Toyota	-14126
▁wardrobe	-14127
▁foreigners	-14128
▁identifying	-14129
igen	-14130
▁Mumb	-14131
▁Norm	-14132
▁Montgom	-14133
▁assigned	-14134
▁sustainable	-14135
▁eldest	-14136
▁Tripoli	-14137
▁Amsterdam	-14138
feeding	-14139
▁prisons	-14140
ptic	-14141
▁Less	-14142
thirds	-14143
▁€	-14144
▁Pete	-14145
handed	-14146
▁Deep	-14147
▁Vogue	-14148
hearted	-14149
▁airplane	-14150
fig	-14151
▁Cay	-14152
▁Standards	-14153
▁hurricane	-14154
▁grace	-14155
▁skiing	-14156
▁Wiltshire	-14157
Pro	-14158
respect	-14159
▁Hilton	-14160
▁Communist	-14161
▁Tu	-14162
guards	-14163
▁Worces	-14164
▁assert	-14165
▁showers	-14166
Brit	-14167
erals	-14168
▁flour	-14169
▁empire	-14170
▁Cad	-14171
▁£16	-14172
stant	-14173
▁rated	-14174
▁wished	-14175
▁tasks	-14176
▁Making	-14177
▁bucket	-14178
▁130	-14179
▁1989	-14180
▁Prom	-14181
▁maid	-14182
▁Sherwood	-14183
hamed	-14184
▁controlling	-14185
▁sob	-14186
▁da	-14187
▁Christina	-14188
▁Huss	-14189
▁Scots	-14190
▁Editor	-14191
▁Blatter	-14192
▁routinely	-14193
▁86	-14194
▁hyper	-14195
▁skirt	-14196
have	-14197
▁Lynch	-14198
▁Sutton	-14199
ean	-14200
▁AIDS	-14201
▁Chase	-14202
▁Beverly	-14203
▁Berlusconi	-14204
▁prescribed	-14205
▁mole	-14206
▁produces	-14207
▁shortage	-14208
▁Schumacher	-14209
▁exceptional	-14210
▁technologies	-14211
grown	-14212
▁bump	-14213
▁Chloe	-14214
▁compare	-14215
bone	-14216
feld	-14217
▁Hassan	-14218
▁juvenile	-14219
▁showc	-14220
▁Pin	-14221
▁Newtown	-14222
azines	-14223
▁surgeries	-14224
eches	-14225
itic	-14226
▁Olivia	-14227
▁Chapman	-14228
▁particles	-14229
isk	-14230
▁auto	-14231
▁Mirror	-14232
▁females	-14233
▁colourful	-14234
▁accessible	-14235
ycles	-14236
-10	-14237
▁Luiz	-14238
▁cocktail	-14239
▁bases	-14240
▁ESP	-14241
▁forb	-14242
▁Riley	-14243
ificent	-14244
▁Porto	-14245
▁happily	-14246
▁supermarkets	-14247
edy	-14248
▁shook	-14249
▁accord	-14250
▁temple	-14251
▁booking	-14252
▁formula	-14253
Your	-14254
raeus	-14255
▁Cara	-14256
▁Study	-14257
▁narrowly	-14258
▁artwork	-14259
▁austerity	-14260
▁21.	-14261
▁paralys	-14262
▁Richmond	-14263
▁withdrawal	-14264
▁uncertainty	-14265
▁suic	-14266
▁coins	-14267
▁castle	-14268
▁consol	-14269
▁incorpor	-14270
▁responses	-14271
▁UC	-14272
▁Hugo	-14273
▁drops	-14274
▁Survey	-14275
▁database	-14276
▁tune	-14277
▁flesh	-14278
▁Model	-14279
▁scans	-14280
▁polling	-14281
raham	-14282
▁Lynn	-14283
▁cher	-14284
Cl	-14285
▁ghost	-14286
▁chairs	-14287
▁Blanc	-14288
▁addressing	-14289
▁Superintendent	-14290
five	-14291
▁addict	-14292
▁evacuation	-14293
▁Dad	-14294
▁poorly	-14295
▁sufferers	-14296
irk	-14297
fried	-14298
▁©	-14299
etti	-14300
▁ambitions	-14301
▁GB	-14302
▁6,000	-14303
▁Donna	-14304
▁Swift	-14305
▁Player	-14306
▁frustrating	-14307
itime	-14308
▁patri	-14309
▁Terror	-14310
▁panels	-14311
▁regain	-14312
▁reviewing	-14313
▁correspondent	-14314
▁WA	-14315
ickers	-14316
▁barred	-14317
▁authorized	-14318
▁lighter	-14319
▁Cameroon	-14320
▁healthier	-14321
braska	-14322
▁juice	-14323
▁Bryant	-14324
▁Griffin	-14325
▁Hopkins	-14326
▁fortnight	-14327
seek	-14328
▁pap	-14329
▁Singer	-14330
▁Patricia	-14331
▁explosions	-14332
▁Suz	-14333
▁acquired	-14334
▁transgender	-14335
▁Surv	-14336
▁tide	-14337
▁Claud	-14338
▁Princ	-14339
itating	-14340
▁Fellow	-14341
▁fortunate	-14342
▁Sid	-14343
aunch	-14344
▁script	-14345
▁participating	-14346
▁veto	-14347
ateral	-14348
Over	-14349
acious	-14350
▁Mission	-14351
▁branches	-14352
▁Ips	-14353
covery	-14354
▁boasted	-14355
▁jealous	-14356
▁undergone	-14357
▁56,	-14358
▁cra	-14359
inces	-14360
▁Petraeus	-14361
▁educated	-14362
▁hearings	-14363
▁southwest	-14364
▁BA	-14365
▁Hero	-14366
▁memoir	-14367
▁Standard	-14368
▁pressing	-14369
frey	-14370
▁sue	-14371
aho	-14372
iancé	-14373
▁approve	-14374
▁concerning	-14375
▁expressing	-14376
▁naval	-14377
▁Geneva	-14378
▁aiming	-14379
▁Champion	-14380
▁manifest	-14381
▁memorable	-14382
▁lesbian	-14383
esy	-14384
try	-14385
chard	-14386
▁Hondur	-14387
▁Natural	-14388
▁Finn	-14389
▁magazines	-14390
eli	-14391
▁vic	-14392
▁marking	-14393
ener	-14394
▁Nou	-14395
bourg	-14396
umbria	-14397
▁disgu	-14398
reatment	-14399
▁frightened	-14400
▁Drog	-14401
van	-14402
▁Mol	-14403
▁Dunn	-14404
▁pastor	-14405
▁contrad	-14406
▁Gloucestershire	-14407
mill	-14408
leine	-14409
rehend	-14410
▁sweep	-14411
▁Immigration	-14412
rior	-14413
uman	-14414
Since	-14415
aston	-14416
▁retal	-14417
▁overlook	-14418
▁securing	-14419
▁possessing	-14420
Mal	-14421
minded	-14422
igation	-14423
▁ranking	-14424
▁smuggling	-14425
▁haun	-14426
▁churches	-14427
▁surveyed	-14428
▁abd	-14429
▁drain	-14430
▁Gabriel	-14431
▁illnesses	-14432
▁Cob	-14433
casts	-14434
▁parach	-14435
ropriately	-14436
▁nationals	-14437
▁err	-14438
▁Should	-14439
▁Ply	-14440
ellar	-14441
▁Towns	-14442
▁banner	-14443
▁(6	-14444
▁Mug	-14445
▁Ral	-14446
▁sexy	-14447
cation	-14448
ussion	-14449
▁Pret	-14450
▁Subs	-14451
▁genes	-14452
▁Herrera	-14453
▁Soon	-14454
▁Thom	-14455
▁Cricket	-14456
▁Challenge	-14457
▁Bak	-14458
▁Megan	-14459
▁notor	-14460
uddy	-14461
▁rope	-14462
▁Steenk	-14463
▁packages	-14464
eves	-14465
▁nasty	-14466
▁subsid	-14467
▁publishing	-14468
Islam	-14469
▁Forbes	-14470
▁Building	-14471
▁tense	-14472
▁McConnell	-14473
▁disgusting	-14474
▁ram	-14475
▁unle	-14476
▁sketch	-14477
▁$10,000	-14478
▁bruises	-14479
astrophic	-14480
pa	-14481
airy	-14482
▁deleted	-14483
▁rhetoric	-14484
▁IM	-14485
hunt	-14486
▁Families	-14487
▁discovering	-14488
▁Wes	-14489
▁Brits	-14490
prising	-14491
▁Empire	-14492
▁disclosed	-14493
aley	-14494
funded	-14495
▁Karzai	-14496
GM	-14497
wart	-14498
▁exploring	-14499
▁1991	-14500
▁saddened	-14501
pherd	-14502
uctions	-14503
▁Dom	-14504
ration	-14505
▁mining	-14506
aters	-14507
▁Parkinson	-14508
▁scra	-14509
▁Kirst	-14510
▁intend	-14511
▁migration	-14512
asia	-14513
▁Fut	-14514
▁grim	-14515
▁favourites	-14516
▁nutrition	-14517
▁accomplish	-14518
▁Giggs	-14519
▁formerly	-14520
▁antibiotics	-14521
▁maintaining	-14522
▁$1,	-14523
▁betray	-14524
Look	-14525
isms	-14526
▁cosmetic	-14527
▁sticking	-14528
▁Burns	-14529
▁recruited	-14530
23	-14531
▁implemented	-14532
▁Vo	-14533
icon	-14534
▁140	-14535
Thank	-14536
▁Cruise	-14537
▁knocking	-14538
ucc	-14539
▁nail	-14540
neider	-14541
▁2000,	-14542
▁2002.	-14543
▁Master	-14544
▁Centers	-14545
▁restrain	-14546
▁superstar	-14547
ongh	-14548
▁plag	-14549
▁Alison	-14550
▁unders	-14551
▁leap	-14552
▁stew	-14553
▁Quinn	-14554
▁spared	-14555
▁Bian	-14556
▁bans	-14557
inator	-14558
▁Creek	-14559
▁ashamed	-14560
▁pockets	-14561
▁compiled	-14562
▁profound	-14563
▁Steenkamp	-14564
bucks	-14565
▁helm	-14566
BE	-14567
Star	-14568
▁iOS	-14569
▁Shaun	-14570
▁innovation	-14571
this	-14572
▁Gadd	-14573
▁ware	-14574
andals	-14575
▁Cut	-14576
▁clutch	-14577
▁Cahill	-14578
▁Mumbai	-14579
▁load	-14580
▁injuring	-14581
complete	-14582
▁Assange	-14583
opol	-14584
apova	-14585
▁Actress	-14586
▁oral	-14587
OM	-14588
▁Bi	-14589
▁hed	-14590
space	-14591
uerto	-14592
▁Stars	-14593
▁fantasy	-14594
▁justify	-14595
▁45-	-14596
upert	-14597
▁ESPN	-14598
▁aspir	-14599
▁surrog	-14600
atics	-14601
▁ambition	-14602
▁61	-14603
▁Hos	-14604
▁Jas	-14605
▁Too	-14606
▁homeland	-14607
cat	-14608
iona	-14609
anium	-14610
▁Mann	-14611
▁abduction	-14612
▁Say	-14613
▁Lohan	-14614
section	-14615
▁guided	-14616
▁Nebraska	-14617
▁uniforms	-14618
▁Madeleine	-14619
▁architecture	-14620
▁angle	-14621
▁altogether	-14622
omi	-14623
▁Tas	-14624
▁bidding	-14625
▁intellect	-14626
▁Fow	-14627
▁Javier	-14628
gor	-14629
▁stylish	-14630
esa	-14631
▁marg	-14632
vision	-14633
Fi	-14634
▁Button	-14635
▁Record	-14636
▁imprisoned	-14637
▁Tunisia	-14638
▁chilling	-14639
▁Archbishop	-14640
▁critically	-14641
▁Debor	-14642
▁Lot	-14643
▁Suk	-14644
riculum	-14645
▁tackling	-14646
▁Mak	-14647
henko	-14648
olding	-14649
▁amput	-14650
▁wrongly	-14651
▁Meh	-14652
▁dil	-14653
shots	-14654
atively	-14655
▁Doctor	-14656
▁mainland	-14657
▁Constable	-14658
▁Sharapova	-14659
▁Dyn	-14660
▁acute	-14661
astrous	-14662
▁margin	-14663
▁helpful	-14664
▁suburbs	-14665
gregation	-14666
berto	-14667
▁Actor	-14668
▁Alt	-14669
▁perception	-14670
colm	-14671
▁Shir	-14672
▁enhance	-14673
▁financially	-14674
they	-14675
▁Tab	-14676
▁Boys	-14677
▁Clare	-14678
stick	-14679
▁Plymouth	-14680
which	-14681
▁Strauss	-14682
▁mode	-14683
▁destroying	-14684
uru	-14685
▁AD	-14686
▁Cable	-14687
▁flank	-14688
▁quarterback	-14689
TC	-14690
▁chop	-14691
▁dose	-14692
▁hind	-14693
▁Blasio	-14694
▁crashes	-14695
▁Xi	-14696
▁bell	-14697
▁Firefighters	-14698
▁Aer	-14699
skirts	-14700
44	-14701
▁apartments	-14702
▁sauce	-14703
▁Drogba	-14704
▁listened	-14705
▁participation	-14706
▁Ni	-14707
boys	-14708
▁Led	-14709
human	-14710
▁Puerto	-14711
▁costumes	-14712
Man	-14713
ogg	-14714
▁tops	-14715
▁Madonna	-14716
▁creator	-14717
achi	-14718
▁urine	-14719
▁overdose	-14720
best	-14721
▁Jade	-14722
▁cough	-14723
▁smash	-14724
▁Claims	-14725
▁laying	-14726
▁crowned	-14727
▁embraced	-14728
▁Ibrahimovic	-14729
▁360	-14730
uffle	-14731
▁Conc	-14732
▁Tracy	-14733
▁Airbus	-14734
▁distant	-14735
▁sacrifice	-14736
▁sang	-14737
ulates	-14738
healthy	-14739
▁6-3	-14740
▁Gear	-14741
iership	-14742
▁casino	-14743
▁murderer	-14744
▁Ot	-14745
▁Tol	-14746
▁Marcus	-14747
▁agrees	-14748
▁beard	-14749
▁denying	-14750
fam	-14751
phoon	-14752
▁indefin	-14753
▁preparations	-14754
every	-14755
▁Batt	-14756
▁repay	-14757
▁benefic	-14758
▁permitted	-14759
▁nic	-14760
faced	-14761
▁cens	-14762
▁hazard	-14763
stitutional	-14764
▁motorcycle	-14765
eur	-14766
chief	-14767
urbed	-14768
▁surre	-14769
▁Province	-14770
▁applying	-14771
flix	-14772
▁carn	-14773
▁debates	-14774
▁psychiat	-14775
▁appet	-14776
FP	-14777
ells	-14778
▁Temple	-14779
▁backyard	-14780
▁brutally	-14781
▁drank	-14782
▁Superior	-14783
cap	-14784
rews	-14785
▁perpetr	-14786
▁accidental	-14787
▁cute	-14788
▁cartel	-14789
▁rampage	-14790
▁Abr	-14791
▁pier	-14792
▁persons	-14793
▁monster	-14794
▁mun	-14795
▁irrit	-14796
▁Bh	-14797
warf	-14798
▁Poy	-14799
▁suck	-14800
▁Currently	-14801
card	-14802
▁stead	-14803
▁Ambulance	-14804
▁plug	-14805
▁intrud	-14806
▁playground	-14807
▁60-	-14808
shirts	-14809
▁Convention	-14810
▁arena	-14811
▁locally	-14812
▁punching	-14813
▁predecessor	-14814
▁independently	-14815
▁owed	-14816
▁fatig	-14817
▁Newton	-14818
▁contributions	-14819
▁Sign	-14820
▁carriers	-14821
▁nickname	-14822
▁violating	-14823
▁deportation	-14824
▁@@	-14825
aney	-14826
▁Jub	-14827
▁griev	-14828
lestone	-14829
▁immense	-14830
▁earliest	-14831
▁Similar	-14832
▁launches	-14833
▁Holocaust	-14834
▁surprisingly	-14835
▁disclose	-14836
▁consciousness	-14837
▁sofa	-14838
▁Coron	-14839
wed	-14840
icio	-14841
▁barriers	-14842
▁examiner	-14843
▁Ana	-14844
▁lions	-14845
ificance	-14846
ICE	-14847
▁masks	-14848
▁Review	-14849
▁Coventry	-14850
▁avoiding	-14851
now	-14852
▁excav	-14853
▁robots	-14854
▁grieving	-14855
▁councillor	-14856
▁Tea	-14857
▁accent	-14858
▁writers	-14859
▁credibility	-14860
▁magistrates	-14861
▁bother	-14862
▁Elsewhere	-14863
▁cattle	-14864
▁Circuit	-14865
anie	-14866
▁Being	-14867
caution	-14868
▁fathers	-14869
▁Arabic	-14870
▁halfway	-14871
▁luxurious	-14872
inally	-14873
▁captive	-14874
▁wherever	-14875
▁Supporters	-14876
▁Greene	-14877
▁interpre	-14878
occ	-14879
Qaeda	-14880
▁Luther	-14881
▁blogger	-14882
▁invented	-14883
▁outskirts	-14884
▁mutual	-14885
▁Malcolm	-14886
West	-14887
▁Metro	-14888
▁hydro	-14889
▁evident	-14890
▁Muhammad	-14891
eah	-14892
▁troop	-14893
▁sank	-14894
▁kicks	-14895
▁engulf	-14896
▁gaming	-14897
▁fiancee	-14898
▁pipeline	-14899
▁barrister	-14900
▁Bren	-14901
▁netted	-14902
▁diplomats	-14903
▁instructed	-14904
▁cripp	-14905
▁proceeds	-14906
▁disorders	-14907
▁inevitable	-14908
▁''	-14909
▁voter	-14910
▁Popular	-14911
▁Reynolds	-14912
-19	-14913
▁youths	-14914
nis	-14915
▁poly	-14916
▁radi	-14917
▁Deborah	-14918
▁collided	-14919
▁neighbouring	-14920
▁dread	-14921
▁ber	-14922
▁Danger	-14923
▁kilomet	-14924
▁processing	-14925
▁Middlesbrough	-14926
Obviously	-14927
model	-14928
ocide	-14929
▁layers	-14930
▁disgrace	-14931
▁companion	-14932
gel	-14933
▁Help	-14934
▁pale	-14935
bot	-14936
▁30.	-14937
▁Tat	-14938
igma	-14939
▁Monte	-14940
36	-14941
▁Sou	-14942
onte	-14943
isure	-14944
ermain	-14945
▁plight	-14946
▁Primary	-14947
▁dismissal	-14948
▁disruption	-14949
incing	-14950
▁Latino	-14951
▁Economic	-14952
▁considers	-14953
lia	-14954
▁blunt	-14955
▁stair	-14956
hey	-14957
▁bunk	-14958
▁gorge	-14959
▁distingu	-14960
▁mounting	-14961
▁bankruptcy	-14962
▁boo	-14963
▁raced	-14964
▁Santos	-14965
▁regrets	-14966
▁strangled	-14967
ribly	-14968
ugging	-14969
LE	-14970
▁Rather	-14971
▁intrig	-14972
▁privilege	-14973
▁emotionally	-14974
▁71	-14975
▁index	-14976
▁graves	-14977
[...]
